{
  "version": "1.0",
  "truncation": null,
  "padding": null,
  "added_tokens": [
    {
      "id": 0,
      "content": "[PAD]",
      "single_word": false,
      "lstrip": false,
      "rstrip": false,
      "normalized": false,
      "special": true
    },
    {
      "id": 1,
      "content": "[UNK]",
      "single_word": false,
      "lstrip": false,
      "rstrip": false,
      "normalized": false,
      "special": true
    }
  ],
  "normalizer": null,
  "pre_tokenizer": {
    "type": "Whitespace"
  },
  "post_processor": null,
  "decoder": null,
  "model": {
    "type": "BPE",
    "dropout": null,
    "unk_token": "[UNK]",
    "continuing_subword_prefix": null,
    "end_of_word_suffix": null,
    "fuse_unk": false,
    "byte_fallback": false,
    "ignore_merges": false,
    "vocab": {
      "[PAD]": 0,
      "[UNK]": 1,
      "!": 2,
      "\"": 3,
      "#": 4,
      "$": 5,
      "%": 6,
      "&": 7,
      "'": 8,
      "(": 9,
      ")": 10,
      "*": 11,
      "+": 12,
      ",": 13,
      "-": 14,
      ".": 15,
      "/": 16,
      "0": 17,
      "1": 18,
      "2": 19,
      "3": 20,
      "4": 21,
      "5": 22,
      "6": 23,
      "7": 24,
      "8": 25,
      "9": 26,
      ":": 27,
      ";": 28,
      "<": 29,
      "=": 30,
      ">": 31,
      "?": 32,
      "@": 33,
      "A": 34,
      "B": 35,
      "C": 36,
      "D": 37,
      "E": 38,
      "F": 39,
      "G": 40,
      "H": 41,
      "I": 42,
      "J": 43,
      "K": 44,
      "L": 45,
      "M": 46,
      "N": 47,
      "O": 48,
      "P": 49,
      "Q": 50,
      "R": 51,
      "S": 52,
      "T": 53,
      "U": 54,
      "V": 55,
      "W": 56,
      "X": 57,
      "Y": 58,
      "Z": 59,
      "[": 60,
      "\\": 61,
      "]": 62,
      "^": 63,
      "_": 64,
      "`": 65,
      "a": 66,
      "b": 67,
      "c": 68,
      "d": 69,
      "e": 70,
      "f": 71,
      "g": 72,
      "h": 73,
      "i": 74,
      "j": 75,
      "k": 76,
      "l": 77,
      "m": 78,
      "n": 79,
      "o": 80,
      "p": 81,
      "q": 82,
      "r": 83,
      "s": 84,
      "t": 85,
      "u": 86,
      "v": 87,
      "w": 88,
      "x": 89,
      "y": 90,
      "z": 91,
      "{": 92,
      "|": 93,
      "}": 94,
      "~": 95,
      "£": 96,
      "©": 97,
      "°": 98,
      "±": 99,
      "²": 100,
      "·": 101,
      "º": 102,
      "À": 103,
      "Ã": 104,
      "Ä": 105,
      "×": 106,
      "ß": 107,
      "à": 108,
      "á": 109,
      "â": 110,
      "ã": 111,
      "ä": 112,
      "å": 113,
      "æ": 114,
      "ç": 115,
      "è": 116,
      "é": 117,
      "ê": 118,
      "ë": 119,
      "ì": 120,
      "í": 121,
      "î": 122,
      "ï": 123,
      "ñ": 124,
      "ò": 125,
      "ó": 126,
      "ô": 127,
      "õ": 128,
      "ö": 129,
      "ø": 130,
      "ù": 131,
      "ú": 132,
      "û": 133,
      "ü": 134,
      "ý": 135,
      "ÿ": 136,
      "ą": 137,
      "ć": 138,
      "ı": 139,
      "š": 140,
      "ū": 141,
      "́": 142,
      "ά": 143,
      "ή": 144,
      "α": 145,
      "γ": 146,
      "δ": 147,
      "ε": 148,
      "ι": 149,
      "κ": 150,
      "λ": 151,
      "μ": 152,
      "ο": 153,
      "π": 154,
      "ρ": 155,
      "В": 156,
      "И": 157,
      "М": 158,
      "Н": 159,
      "а": 160,
      "б": 161,
      "в": 162,
      "г": 163,
      "д": 164,
      "е": 165,
      "з": 166,
      "и": 167,
      "й": 168,
      "к": 169,
      "л": 170,
      "м": 171,
      "н": 172,
      "о": 173,
      "п": 174,
      "р": 175,
      "с": 176,
      "т": 177,
      "у": 178,
      "х": 179,
      "ч": 180,
      "ш": 181,
      "щ": 182,
      "ы": 183,
      "ь": 184,
      "ю": 185,
      "я": 186,
      "ְ": 187,
      "ָ": 188,
      "ֻ": 189,
      "א": 190,
      "ב": 191,
      "ג": 192,
      "ד": 193,
      "ו": 194,
      "י": 195,
      "ל": 196,
      "ם": 197,
      "ע": 198,
      "ש": 199,
      "إ": 200,
      "ا": 201,
      "د": 202,
      "م": 203,
      "ن": 204,
      "ه": 205,
      "و": 206,
      "ی": 207,
      "–": 208,
      "—": 209,
      "’": 210,
      "“": 211,
      "”": 212,
      "€": 213,
      "№": 214,
      "←": 215,
      "→": 216,
      "↻": 217,
      "∂": 218,
      "∆": 219,
      "∑": 220,
      "∞": 221,
      "∠": 222,
      "≪": 223,
      "⊲": 224,
      "⊳": 225,
      "─": 226,
      "━": 227,
      "│": 228,
      "└": 229,
      "├": 230,
      "╸": 231,
      "█": 232,
      "▋": 233,
      "☃": 234,
      "☕": 235,
      "☹": 236,
      "☺": 237,
      "⚠": 238,
      "✅": 239,
      "✓": 240,
      "✔": 241,
      "✗": 242,
      "✨": 243,
      "❌": 244,
      "❤": 245,
      "ィ": 246,
      "ェ": 247,
      "ク": 248,
      "ジ": 249,
      "ッ": 250,
      "デ": 251,
      "ト": 252,
      "ニ": 253,
      "ピ": 254,
      "リ": 255,
      "レ": 256,
      "ー": 257,
      "ㄒ": 258,
      "丨": 259,
      "乂": 260,
      "乇": 261,
      "匚": 262,
      "卂": 263,
      "卄": 264,
      "卡": 265,
      "嘣": 266,
      "尺": 267,
      "测": 268,
      "火": 269,
      "腿": 270,
      "试": 271,
      "니": 272,
      "드": 273,
      "유": 274,
      "코": 275,
      "️": 276,
      "＄": 277,
      "🉐": 278,
      "🌀": 279,
      "🌐": 280,
      "🍰": 281,
      "🎉": 282,
      "👍": 283,
      "👥": 284,
      "💬": 285,
      "📝": 286,
      "🕙": 287,
      "😉": 288,
      "😎": 289,
      "😱": 290,
      "🚀": 291,
      "🤓": 292,
      "🪥": 293,
      "es": 294,
      "er": 295,
      "in": 296,
      "on": 297,
      "at": 298,
      "or": 299,
      "ar": 300,
      "se": 301,
      "al": 302,
      "re": 303,
      "th": 304,
      "as": 305,
      "an": 306,
      "de": 307,
      "est": 308,
      "st": 309,
      "en": 310,
      "le": 311,
      "am": 312,
      "it": 313,
      "ion": 314,
      "--": 315,
      "is": 316,
      "test": 317,
      "ass": 318,
      "==": 319,
      "om": 320,
      "ct": 321,
      "ra": 322,
      "im": 323,
      "ed": 324,
      "et": 325,
      "ing": 326,
      "\",": 327,
      "the": 328,
      "ut": 329,
      "res": 330,
      "cl": 331,
      "pe": 332,
      "\"\"": 333,
      "\":": 334,
      "ch": 335,
      "_s": 336,
      "py": 337,
      "pl": 338,
      "def": 339,
      "ent": 340,
      "for": 341,
      "and": 342,
      "par": 343,
      "ro": 344,
      "fi": 345,
      "ce": 346,
      "di": 347,
      "co": 348,
      "):": 349,
      "ul": 350,
      "el": 351,
      "to": 352,
      "ri": 353,
      "ert": 354,
      "ur": 355,
      "un": 356,
      "lf": 357,
      "lo": 358,
      "self": 359,
      "ot": 360,
      "one": 361,
      "ort": 362,
      "ue": 363,
      "dat": 364,
      "ex": 365,
      "----": 366,
      "of": 367,
      "assert": 368,
      "port": 369,
      "n_": 370,
      "con": 371,
      "None": 372,
      "pytest": 373,
      "ap": 374,
      "ig": 375,
      "val": 376,
      "ty": 377,
      "ab": 378,
      "if": 379,
      "ray": 380,
      "wi": 381,
      "()": 382,
      "ult": 383,
      "e_": 384,
      "(\"": 385,
      "\"\"\"": 386,
      "np": 387,
      "array": 388,
      "import": 389,
      "um": 390,
      "],": 391,
      "ma": 392,
      "\")": 393,
      "nam": 394,
      "qu": 395,
      "pre": 396,
      "ck": 397,
      "tr": 398,
      "class": 399,
      "int": 400,
      "mo": 401,
      "param": 402,
      "ation": 403,
      "pon": 404,
      "fr": 405,
      "ver": 406,
      "atu": 407,
      "====": 408,
      "all": 409,
      "arn": 410,
      "type": 411,
      "data": 412,
      "get": 413,
      "li": 414,
      "from": 415,
      "ate": 416,
      "ht": 417,
      "ad": 418,
      "ret": 419,
      "fe": 420,
      "pt": 421,
      "s_": 422,
      "com": 423,
      "cor": 424,
      "sh": 425,
      "y_": 426,
      "ol": 427,
      "urn": 428,
      "em": 429,
      "not": 430,
      "test_": 431,
      "fit": 432,
      "str": 433,
      "),": 434,
      "pat": 435,
      "ple": 436,
      "ag": 437,
      "we": 438,
      "ror": 439,
      "ator": 440,
      "with": 441,
      "featu": 442,
      "pro": 443,
      "il": 444,
      "ampl": 445,
      "ction": 446,
      "set": 447,
      "return": 448,
      "amples": 449,
      "ic": 450,
      "out": 451,
      "form": 452,
      "lin": 453,
      "he": 454,
      "put": 455,
      "id": 456,
      "imator": 457,
      "=\"": 458,
      "andom": 459,
      "name": 460,
      "ke": 461,
      "},": 462,
      "ans": 463,
      "Tr": 464,
      "me": 465,
      "path": 466,
      "ers": 467,
      "ve": 468,
      "ponse": 469,
      "be": 470,
      "ight": 471,
      "iz": 472,
      "sion": 473,
      "che": 474,
      "estimator": 475,
      "su": 476,
      "del": 477,
      "mat": 478,
      "ne": 479,
      "__": 480,
      "``": 481,
      "learn": 482,
      "random": 483,
      "no": 484,
      "ces": 485,
      "##": 486,
      "bo": 487,
      "[\"": 488,
      "X_": 489,
      "True": 490,
      "ape": 491,
      "weight": 492,
      "features": 493,
      "po": 494,
      "00": 495,
      "cont": 496,
      "response": 497,
      "ample": 498,
      "])": 499,
      "ption": 500,
      "_samples": 501,
      "etri": 502,
      "tra": 503,
      "sk": 504,
      "do": 505,
      "Er": 506,
      "ter": 507,
      "Error": 508,
      "dict": 509,
      "ed_": 510,
      "app": 511,
      "d_": 512,
      "abel": 513,
      "us": 514,
      "ifi": 515,
      "arg": 516,
      "fun": 517,
      "{\"": 518,
      "ba": 519,
      "shape": 520,
      ">>": 521,
      "_st": 522,
      "--------": 523,
      "ob": 524,
      "trans": 525,
      "========": 526,
      "ance": 527,
      "Re": 528,
      "ault": 529,
      "mar": 530,
      "wh": 531,
      "sed": 532,
      "model": 533,
      "per": 534,
      "n_samples": 535,
      "parse": 536,
      "ust": 537,
      "requ": 538,
      "label": 539,
      "that": 540,
      "result": 541,
      "ast": 542,
      "The": 543,
      "default": 544,
      "ext": 545,
      "alse": 546,
      "->": 547,
      "col": 548,
      "max": 549,
      ").": 550,
      "check": 551,
      "od": 552,
      "..": 553,
      "sklearn": 554,
      "up": 555,
      "False": 556,
      "pen": 557,
      "item": 558,
      "idat": 559,
      "dtype": 560,
      "cal": 561,
      "num": 562,
      "ly": 563,
      "_in": 564,
      "ents": 565,
      "ax": 566,
      "ure": 567,
      "iter": 568,
      "mark": 569,
      "vi": 570,
      "transform": 571,
      "():": 572,
      "core": 573,
      "train": 574,
      "))": 575,
      "sample": 576,
      "_weight": 577,
      "assert_": 578,
      "gres": 579,
      "fo": 580,
      "meth": 581,
      "pr": 582,
      "able": 583,
      "line": 584,
      "call": 585,
      "pytester": 586,
      "valu": 587,
      "cli": 588,
      "get_": 589,
      "Val": 590,
      "ss": 591,
      "are": 592,
      "names": 593,
      "ef": 594,
      "ph": 595,
      "den": 596,
      "pa": 597,
      "age": 598,
      "arning": 599,
      "fig": 600,
      "pect": 601,
      "_m": 602,
      "value": 603,
      "ci": 604,
      "_state": 605,
      "equ": 606,
      "random_state": 607,
      "error": 608,
      "cs": 609,
      "ang": 610,
      "n_features": 611,
      ":`": 612,
      "nor": 613,
      "ca": 614,
      "al_": 615,
      "values": 616,
      "method": 617,
      "file": 618,
      "ist": 619,
      "ect": 620,
      "ain": 621,
      "list": 622,
      "ize": 623,
      "([": 624,
      "min": 625,
      "obj": 626,
      "log": 627,
      "code": 628,
      "10": 629,
      "predict": 630,
      "der": 631,
      "ive": 632,
      "fix": 633,
      "ated": 634,
      "flo": 635,
      "xp": 636,
      "In": 637,
      "match": 638,
      "idation": 639,
      "by": 640,
      "\"]": 641,
      "init": 642,
      "compon": 643,
      "clf": 644,
      "params": 645,
      "fa": 646,
      "array_": 647,
      "ifier": 648,
      "float": 649,
      "function": 650,
      "Test": 651,
      "des": 652,
      "len": 653,
      "####": 654,
      "api": 655,
      "p_": 656,
      "max_": 657,
      "client": 658,
      "son": 659,
      "else": 660,
      "use": 661,
      "eta": 662,
      "ise": 663,
      "feature": 664,
      "etriz": 665,
      "rout": 666,
      "_t": 667,
      "var": 668,
      "parametriz": 669,
      "Cl": 670,
      "equal": 671,
      "expect": 672,
      "sample_weight": 673,
      "but": 674,
      "inter": 675,
      "ds": 676,
      "ll": 677,
      "cept": 678,
      "ision": 679,
      "dist": 680,
      "ant": 681,
      "paramet": 682,
      "er_": 683,
      "inst": 684,
      "sing": 685,
      "ors": 686,
      "ity": 687,
      "this": 688,
      "components": 689,
      "ture": 690,
      "request": 691,
      "ps": 692,
      "ir": 693,
      "ask": 694,
      "sg": 695,
      "ess": 696,
      "sparse": 697,
      "classes": 698,
      "json": 699,
      "config": 700,
      "bin": 701,
      "args": 702,
      ">>>": 703,
      "parametrize": 704,
      "ies": 705,
      "ff": 706,
      "ber": 707,
      "metri": 708,
      "plot": 709,
      "gen": 710,
      "gor": 711,
      "version": 712,
      "coef": 713,
      "_score": 714,
      "**": 715,
      "cision": 716,
      "`.": 717,
      "vel": 718,
      "true": 719,
      "ther": 720,
      "object": 721,
      "itle": 722,
      "key": 723,
      "igh": 724,
      "Ex": 725,
      "plit": 726,
      "alph": 727,
      "du": 728,
      "fit_": 729,
      "AP": 730,
      "output": 731,
      "ay": 732,
      "raise": 733,
      "ime": 734,
      "ded": 735,
      "Value": 736,
      "check_": 737,
      "API": 738,
      "ial": 739,
      "ree": 740,
      "tar": 741,
      "Th": 742,
      "run": 743,
      "ame": 744,
      "matri": 745,
      "sho": 746,
      "warning": 747,
      "Class": 748,
      "ile": 749,
      "clust": 750,
      "ac": 751,
      "An": 752,
      "back": 753,
      "sub": 754,
      "iv": 755,
      "ble": 756,
      "cur": 757,
      "ser": 758,
      "ase": 759,
      "title": 760,
      "so": 761,
      "ng": 762,
      "clo": 763,
      "uld": 764,
      "ho": 765,
      "ValueError": 766,
      "ises": 767,
      "ulti": 768,
      "can": 769,
      "[:": 770,
      "low": 771,
      "vari": 772,
      "c_": 773,
      "================": 774,
      "gression": 775,
      "ception": 776,
      "sum": 777,
      "_id": 778,
      "ear": 779,
      "string": 780,
      "when": 781,
      "mean": 782,
      "matrix": 783,
      "cation": 784,
      "text": 785,
      "has": 786,
      "reg": 787,
      "(\"/": 788,
      "ary": 789,
      "ias": 790,
      "will": 791,
      "::": 792,
      "Py": 793,
      "ern": 794,
      "ctor": 795,
      "items": 796,
      "ug": 797,
      "pass": 798,
      "ach": 799,
      "alpha": 800,
      "end": 801,
      "ernel": 802,
      "scor": 803,
      "wor": 804,
      "ange": 805,
      "like": 806,
      "nd": 807,
      "cv": 808,
      "ire": 809,
      "ok": 810,
      "loss": 811,
      "If": 812,
      "\"],": 813,
      "Par": 814,
      "ref": 815,
      "ero": 816,
      "read": 817,
      "gra": 818,
      "validation": 819,
      "sol": 820,
      "number": 821,
      "cent": 822,
      "comput": 823,
      "input": 824,
      "norm": 825,
      "rng": 826,
      "ribut": 827,
      "dis": 828,
      "pace": 829,
      "alias": 830,
      "func": 831,
      "used": 832,
      "contain": 833,
      "_name": 834,
      "instance": 835,
      "//": 836,
      "roup": 837,
      "diction": 838,
      "raises": 839,
      "dataset": 840,
      "cri": 841,
      "sor": 842,
      "assert_array_": 843,
      "pred": 844,
      "devi": 845,
      "new": 846,
      "y_true": 847,
      "htt": 848,
      "lib": 849,
      "ip": 850,
      "labels": 851,
      "lines": 852,
      "This": 853,
      "is_": 854,
      "bool": 855,
      "r_": 856,
      "ment": 857,
      "ith": 858,
      "st_": 859,
      "dex": 860,
      "kernel": 861,
      "ding": 862,
      "cate": 863,
      "Classifier": 864,
      "axis": 865,
      "kw": 866,
      "unt": 867,
      "pi": 868,
      "msg": 869,
      "make": 870,
      "only": 871,
      "200": 872,
      "ighb": 873,
      "multi": 874,
      "mak": 875,
      "attr": 876,
      "target": 877,
      "\"},": 878,
      "zero": 879,
      "wn": 880,
      "print": 881,
      "100": 882,
      "ta": 883,
      "_se": 884,
      "ils": 885,
      "categor": 886,
      "plt": 887,
      "context": 888,
      "indi": 889,
      "chema": 890,
      "ere": 891,
      "old": 892,
      "Con": 893,
      "copy": 894,
      "sit": 895,
      "ore": 896,
      "\"),": 897,
      "option": 898,
      "fixture": 899,
      "device": 900,
      "descri": 901,
      "clu": 902,
      "sci": 903,
      "De": 904,
      "tol": 905,
      "Param": 906,
      "n_components": 907,
      "intercept": 908,
      "ub": 909,
      "plic": 910,
      "statu": 911,
      "close": 912,
      "64": 913,
      "yn": 914,
      "art": 915,
      "node": 916,
      "require": 917,
      "cre": 918,
      "lect": 919,
      "should": 920,
      "uni": 921,
      "depen": 922,
      "af": 923,
      "gressor": 924,
      "St": 925,
      "metric": 926,
      "_model": 927,
      "samples": 928,
      "non": 929,
      "_pro": 930,
      "issing": 931,
      "description": 932,
      "content": 933,
      "resh": 934,
      "part": 935,
      "warnings": 936,
      "',": 937,
      "32": 938,
      "ha": 939,
      "lob": 940,
      "gener": 941,
      "----------": 942,
      "time": 943,
      "format": 944,
      "meta": 945,
      "cess": 946,
      "dir": 947,
      "make_": 948,
      "ing_": 949,
      "open": 950,
      "Ret": 951,
      "prediction": 952,
      "fil": 953,
      "und": 954,
      "Return": 955,
      "_ex": 956,
      "each": 957,
      "########": 958,
      "_names": 959,
      "://": 960,
      "aut": 961,
      "It": 962,
      "\"}": 963,
      "Lo": 964,
      "cy": 965,
      "size": 966,
      "Paramet": 967,
      "ful": 968,
      "ON": 969,
      "split": 970,
      "score": 971,
      "Base": 972,
      "_scor": 973,
      "ml": 974,
      "Fast": 975,
      "Ty": 976,
      "parameter": 977,
      "w_": 978,
      "ix": 979,
      "ances": 980,
      "se_": 981,
      "Pytest": 982,
      "more": 983,
      "ighbors": 984,
      "aver": 985,
      "mon": 986,
      "level": 987,
      "std": 988,
      "uth": 989,
      "rect": 990,
      "linear": 991,
      "variance": 992,
      "foo": 993,
      "42": 994,
      "_re": 995,
      "tag": 996,
      "ations": 997,
      "For": 998,
      "s_code": 999,
      "Se": 1000,
      "ndarray": 1001,
      "ER": 1002,
      "dent": 1003,
      "patch": 1004,
      "eld": 1005,
      "ses": 1006,
      "[:,": 1007,
      "tribut": 1008,
      "const": 1009,
      ".\"\"\"": 1010,
      "IN": 1011,
      "FastAPI": 1012,
      "status_code": 1013,
      "typ": 1014,
      "ally": 1015,
      "y_pred": 1016,
      "_f": 1017,
      "_sparse": 1018,
      "set_": 1019,
      "ignor": 1020,
      "colum": 1021,
      "...": 1022,
      "Type": 1023,
      "atch": 1024,
      "index": 1025,
      "wr": 1026,
      "load": 1027,
      "modu": 1028,
      "module": 1029,
      "sup": 1030,
      "ich": 1031,
      "Cli": 1032,
      "expected_": 1033,
      "doc": 1034,
      "expected": 1035,
      "(),": 1036,
      "kwargs": 1037,
      "20": 1038,
      "ate_": 1039,
      "rid": 1040,
      "most_": 1041,
      "numpy": 1042,
      "diff": 1043,
      "Che": 1044,
      "_b": 1045,
      "Check": 1046,
      "ian": 1047,
      "CA": 1048,
      "act": 1049,
      "fast": 1050,
      "url": 1051,
      "Res": 1052,
      "which": 1053,
      "Mo": 1054,
      "posit": 1055,
      "range": 1056,
      "essage": 1057,
      "clude": 1058,
      "Est": 1059,
      "Warning": 1060,
      "nan": 1061,
      "over": 1062,
      "scal": 1063,
      "allclose": 1064,
      "info": 1065,
      "point": 1066,
      "required": 1067,
      "results": 1068,
      "auto": 1069,
      "Not": 1070,
      "ys": 1071,
      "max_iter": 1072,
      "op": 1073,
      "data_": 1074,
      "fail": 1075,
      "using": 1076,
      "Client": 1077,
      "av": 1078,
      "Parameters": 1079,
      "support": 1080,
      "Validation": 1081,
      "almost_": 1082,
      "1e": 1083,
      "almost_equal": 1084,
      "glob": 1085,
      "Random": 1086,
      "classifi": 1087,
      "assed": 1088,
      "----------------": 1089,
      "eg": 1090,
      "any": 1091,
      "assert_allclose": 1092,
      "sv": 1093,
      "solver": 1094,
      "tu": 1095,
      "prob": 1096,
      "cluster": 1097,
      "verbo": 1098,
      "estimators": 1099,
      "head": 1100,
      "Pytester": 1101,
      "lection": 1102,
      "count": 1103,
      "dient": 1104,
      "ard": 1105,
      "https": 1106,
      "passed": 1107,
      "isinstance": 1108,
      "fitt": 1109,
      "utils": 1110,
      "added": 1111,
      "spe": 1112,
      "ft": 1113,
      "Regressor": 1114,
      "fastapi": 1115,
      "\"/": 1116,
      "order": 1117,
      "group": 1118,
      "container": 1119,
      "inal": 1120,
      "().": 1121,
      "([[": 1122,
      ",)": 1123,
      "SV": 1124,
      "n_classes": 1125,
      "schema": 1126,
      "ge": 1127,
      "assert_array_equal": 1128,
      "writ": 1129,
      "imple": 1130,
      "pres": 1131,
      "ence": 1132,
      "fir": 1133,
      "parameters": 1134,
      "hel": 1135,
      "weights": 1136,
      "TestClient": 1137,
      "ind": 1138,
      "_size": 1139,
      "Estimator": 1140,
      "job": 1141,
      "].": 1142,
      "missing": 1143,
      "_path": 1144,
      "mod": 1145,
      "HT": 1146,
      "Response": 1147,
      "chem": 1148,
      "sure": 1149,
      "ren": 1150,
      "wo": 1151,
      "decision": 1152,
      "ep": 1153,
      "valid": 1154,
      "\"])": 1155,
      "kit": 1156,
      "oper": 1157,
      "Exception": 1158,
      "user": 1159,
      "Returns": 1160,
      "ical": 1161,
      "fl": 1162,
      "feature_names": 1163,
      "play": 1164,
      "]]": 1165,
      "ization": 1166,
      "((": 1167,
      "scikit": 1168,
      "12": 1169,
      "ath": 1170,
      "ome": 1171,
      "prop": 1172,
      "indices": 1173,
      "other": 1174,
      "does": 1175,
      "io": 1176,
      "column": 1177,
      "orig": 1178,
      "classification": 1179,
      "namespace": 1180,
      "_C": 1181,
      "stdout": 1182,
      "have": 1183,
      "ative": 1184,
      "neighbors": 1185,
      "------": 1186,
      "row": 1187,
      "precision": 1188,
      "iris": 1189,
      "rand": 1190,
      "df": 1191,
      "cat": 1192,
      "que": 1193,
      "ign": 1194,
      "validat": 1195,
      ".\"": 1196,
      "left": 1197,
      "Regression": 1198,
      "hand": 1199,
      "applic": 1200,
      "{}": 1201,
      "prox": 1202,
      "start": 1203,
      "callback": 1204,
      "regression": 1205,
      "classifier": 1206,
      "`,": 1207,
      "Model": 1208,
      "_r": 1209,
      "ield": 1210,
      "ide": 1211,
      "cap": 1212,
      "respon": 1213,
      "es_": 1214,
      "Ar": 1215,
      "exception": 1216,
      "eps": 1217,
      "dependen": 1218,
      "asyn": 1219,
      "case": 1220,
      "ithm": 1221,
      "TP": 1222,
      "emp": 1223,
      "oc": 1224,
      "pipe": 1225,
      "led": 1226,
      "rap": 1227,
      "ild": 1228,
      "istic": 1229,
      "ugin": 1230,
      "fn": 1231,
      "We": 1232,
      "oo": 1233,
      "CV": 1234,
      "coef_": 1235,
      "thresh": 1236,
      "ual": 1237,
      "term": 1238,
      "Trans": 1239,
      "\"):": 1240,
      "stru": 1241,
      "application": 1242,
      "-------": 1243,
      "pla": 1244,
      "urn_": 1245,
      "prec": 1246,
      "ES": 1247,
      "append": 1248,
      "[[": 1249,
      "return_": 1250,
      "pri": 1251,
      "verbose": 1252,
      "_sk": 1253,
      "rig": 1254,
      "normal": 1255,
      "Path": 1256,
      "global_": 1257,
      "cons": 1258,
      "HTTP": 1259,
      "schem": 1260,
      "same": 1261,
      "conf": 1262,
      "err": 1263,
      "_split": 1264,
      "example": 1265,
      "User": 1266,
      "gorithm": 1267,
      "Co": 1268,
      "X_train": 1269,
      "())": 1270,
      "cro": 1271,
      "attribut": 1272,
      "skip": 1273,
      "!=": 1274,
      "br": 1275,
      "allow": 1276,
      "X_test": 1277,
      "ini": 1278,
      "post": 1279,
      "must": 1280,
      "arch": 1281,
      "_type": 1282,
      "versionadded": 1283,
      "enco": 1284,
      "See": 1285,
      "da": 1286,
      "Any": 1287,
      "repr": 1288,
      "average": 1289,
      "our": 1290,
      "add": 1291,
      "try": 1292,
      "quer": 1293,
      "_test": 1294,
      "last": 1295,
      "_proba": 1296,
      "message": 1297,
      "__init": 1298,
      "than": 1299,
      "first": 1300,
      "openapi": 1301,
      "CS": 1302,
      "jo": 1303,
      "cr": 1304,
      "__init__": 1305,
      "bar": 1306,
      "[-": 1307,
      "tm": 1308,
      "tags": 1309,
      "tree": 1310,
      "docs": 1311,
      "_pytest": 1312,
      "runpytest": 1313,
      "State": 1314,
      "root": 1315,
      "izer": 1316,
      "Annot": 1317,
      "unique": 1318,
      "Item": 1319,
      "report": 1320,
      "algorithm": 1321,
      "sys": 1322,
      "makepy": 1323,
      "ong": 1324,
      "cope": 1325,
      "giv": 1326,
      "_function": 1327,
      "Lin": 1328,
      "deta": 1329,
      "ense": 1330,
      "abil": 1331,
      "operation": 1332,
      "ValidationError": 1333,
      "loc": 1334,
      "wise": 1335,
      "match_": 1336,
      "plugin": 1337,
      "link": 1338,
      "Dis": 1339,
      "jobs": 1340,
      "uff": 1341,
      "%%": 1342,
      "ument": 1343,
      "name_": 1344,
      "from_": 1345,
      "makepyfile": 1346,
      "differ": 1347,
      "its": 1348,
      "ustom": 1349,
      "=[": 1350,
      "fit_transform": 1351,
      "ting": 1352,
      "right": 1353,
      "man": 1354,
      "='": 1355,
      "Annotated": 1356,
      "inf": 1357,
      "]])": 1358,
      "ignore": 1359,
      "[]": 1360,
      "ack": 1361,
      ":`~": 1362,
      "rent": 1363,
      "distances": 1364,
      "RandomState": 1365,
      "work": 1366,
      "color": 1367,
      "l1": 1368,
      "os": 1369,
      "routing": 1370,
      "router": 1371,
      "bet": 1372,
      "quar": 1373,
      "clusters": 1374,
      "Log": 1375,
      "thon": 1376,
      "neg": 1377,
      "dur": 1378,
      "pair": 1379,
      "ive_": 1380,
      "datasets": 1381,
      "warn": 1382,
      "]:": 1383,
      "gth": 1384,
      "n_iter": 1385,
      "ular": 1386,
      "bod": 1387,
      "Com": 1388,
      "fol": 1389,
      "with_": 1390,
      "=(": 1391,
      "async": 1392,
      "tests": 1393,
      "rel": 1394,
      "Un": 1395,
      "defin": 1396,
      "uc": 1397,
      "tuple": 1398,
      "Array": 1399,
      "best": 1400,
      "covariance": 1401,
      "ized": 1402,
      "dim": 1403,
      "Transform": 1404,
      "asso": 1405,
      "_in_": 1406,
      "50": 1407,
      "_g": 1408,
      "base": 1409,
      "Inter": 1410,
      "spec": 1411,
      "ken": 1412,
      "gradient": 1413,
      "n_jobs": 1414,
      "opt": 1415,
      "_scal": 1416,
      "stat": 1417,
      "parent": 1418,
      "where": 1419,
      "html": 1420,
      "propert": 1421,
      "Requ": 1422,
      "schemas": 1423,
      "ead": 1424,
      "pd": 1425,
      "response_model": 1426,
      "updat": 1427,
      "ou": 1428,
      "mary": 1429,
      "current": 1430,
      "predictions": 1431,
      "idx": 1432,
      "training": 1433,
      "elif": 1434,
      "proces": 1435,
      "no_": 1436,
      "Call": 1437,
      "atio": 1438,
      "================================": 1439,
      "assert_array_almost_equal": 1440,
      "transformer": 1441,
      "OR": 1442,
      "vert": 1443,
      "ible": 1444,
      "Tree": 1445,
      "_out": 1446,
      "raw_": 1447,
      "+=": 1448,
      "En": 1449,
      "pand": 1450,
      "center": 1451,
      "40": 1452,
      "child": 1453,
      "filter": 1454,
      "approx": 1455,
      "random_se": 1456,
      "ET": 1457,
      "length": 1458,
      "join": 1459,
      "kno": 1460,
      "graph": 1461,
      "types": 1462,
      "logg": 1463,
      "hook": 1464,
      "iled": 1465,
      "given": 1466,
      "full": 1467,
      "binary": 1468,
      "Dat": 1469,
      "ition": 1470,
      "main": 1471,
      "exc": 1472,
      "ie": 1473,
      "wrap": 1474,
      "float64": 1475,
      "some": 1476,
      "_msg": 1477,
      "search": 1478,
      "metrics": 1479,
      "Str": 1480,
      "cv_": 1481,
      "my": 1482,
      "ERS": 1483,
      "response_": 1484,
      "match_lines": 1485,
      "Read": 1486,
      "csr_": 1487,
      "mode": 1488,
      "Data": 1489,
      "pack": 1490,
      "computed": 1491,
      "\"#": 1492,
      "word": 1493,
      "random_seed": 1494,
      "\"{": 1495,
      "Auth": 1496,
      "TA": 1497,
      "custom": 1498,
      "predict_proba": 1499,
      "_to": 1500,
      "y_train": 1501,
      "pandas": 1502,
      "down": 1503,
      "ped": 1504,
      "age_": 1505,
      "astype": 1506,
      "fitted": 1507,
      "pipeline": 1508,
      "_sample": 1509,
      "fect": 1510,
      "_alias": 1511,
      "correct": 1512,
      "Request": 1513,
      "}\"": 1514,
      "remo": 1515,
      "annot": 1516,
      "integ": 1517,
      "*,": 1518,
      "need": 1519,
      "fnmatch_lines": 1520,
      "_info": 1521,
      "boo": 1522,
      "_idx": 1523,
      "################": 1524,
      "te": 1525,
      "yield": 1526,
      "fit_intercept": 1527,
      "AR": 1528,
      "_sub": 1529,
      "Num": 1530,
      "raint": 1531,
      "ween": 1532,
      "11": 1533,
      "means": 1534,
      "summary": 1535,
      "chang": 1536,
      "empty": 1537,
      "tre": 1538,
      "place": 1539,
      "ti": 1540,
      "keypatch": 1541,
      "estimator_": 1542,
      "distance": 1543,
      "ial_": 1544,
      "Group": 1545,
      "mask": 1546,
      "fer": 1547,
      "Me": 1548,
      "ous": 1549,
      "monkeypatch": 1550,
      "\"*": 1551,
      "Mix": 1552,
      "_un": 1553,
      "include": 1554,
      "stri": 1555,
      "global_random_seed": 1556,
      "categories": 1557,
      "except": 1558,
      "trace": 1559,
      "sparse_": 1560,
      "metadata": 1561,
      "Linear": 1562,
      "Pro": 1563,
      "_1": 1564,
      "Id": 1565,
      "^^": 1566,
      "name__": 1567,
      "session": 1568,
      "Im": 1569,
      "array_api": 1570,
      "E_": 1571,
      "hello": 1572,
      "lean": 1573,
      "different": 1574,
      "callable": 1575,
      "25": 1576,
      "way": 1577,
      "acc": 1578,
      "collect": 1579,
      "Transformer": 1580,
      "_get_": 1581,
      "One": 1582,
      "validate_": 1583,
      "present": 1584,
      "__name__": 1585,
      "leaf": 1586,
      "dep": 1587,
      "([\"": 1588,
      "_values": 1589,
      "ve_": 1590,
      "dot": 1591,
      "nap": 1592,
      "abs": 1593,
      "zeros": 1594,
      "Ne": 1595,
      "_2": 1596,
      "]),": 1597,
      "ral": 1598,
      "uss": 1599,
      "comple": 1600,
      "show": 1601,
      "pos_": 1602,
      "see": 1603,
      "imum": 1604,
      "setup": 1605,
      "item_id": 1606,
      "constraint": 1607,
      "shot": 1608,
      "svm": 1609,
      "responses": 1610,
      "*\",": 1611,
      "cause": 1612,
      "http": 1613,
      "super": 1614,
      "high": 1615,
      "between": 1616,
      "\"#/": 1617,
      "ension": 1618,
      "war": 1619,
      "ine": 1620,
      "pytest_": 1621,
      "auth": 1622,
      "auss": 1623,
      "ev": 1624,
      "line_": 1625,
      "target_": 1626,
      "ail": 1627,
      "napshot": 1628,
      "min_": 1629,
      "Logistic": 1630,
      "log_": 1631,
      "positive": 1632,
      "columns": 1633,
      "query": 1634,
      "two": 1635,
      "fici": 1636,
      "encoding": 1637,
      "ram": 1638,
      "\".": 1639,
      ");": 1640,
      "Doc": 1641,
      "bu": 1642,
      "ugh": 1643,
      "_ratio": 1644,
      "files": 1645,
      "struct": 1646,
      "aussian": 1647,
      "Al": 1648,
      "RE": 1649,
      "bl": 1650,
      "sort": 1651,
      "compute": 1652,
      "direct": 1653,
      "dense": 1654,
      "pca": 1655,
      "fore": 1656,
      "tmp_": 1657,
      "headers": 1658,
      "float32": 1659,
      "hasattr": 1660,
      "\").": 1661,
      "uffle": 1662,
      "thread": 1663,
      "asarray": 1664,
      "No": 1665,
      "without": 1666,
      "both": 1667,
      "nodes": 1668,
      "precated": 1669,
      "ates": 1670,
      "ank": 1671,
      "and_": 1672,
      "accept": 1673,
      "then": 1674,
      "Interval": 1675,
      "dro": 1676,
      "lock": 1677,
      "cond": 1678,
      "Rout": 1679,
      "]],": 1680,
      "was": 1681,
      "solut": 1682,
      "ctory": 1683,
      "scores": 1684,
      "ss_": 1685,
      "also": 1686,
      "LogisticRegression": 1687,
      "scope": 1688,
      "task": 1689,
      "compar": 1690,
      "BS": 1691,
      "scipy": 1692,
      "Ra": 1693,
      "}\")": 1694,
      "imput": 1695,
      "At": 1696,
      "ins": 1697,
      "route": 1698,
      "Display": 1699,
      "tern": 1700,
      "Def": 1701,
      "encode": 1702,
      "ars": 1703,
      "threshold": 1704,
      "``.": 1705,
      "_CON": 1706,
      "imal": 1707,
      "failed": 1708,
      "Pre": 1709,
      "strate": 1710,
      "instead": 1711,
      "TI": 1712,
      "ip_": 1713,
      "quant": 1714,
      "tmp_path": 1715,
      "('": 1716,
      "arrays": 1717,
      "during": 1718,
      "alle": 1719,
      "uble": 1720,
      "01": 1721,
      "eig": 1722,
      "_l": 1723,
      "ensure": 1724,
      "double": 1725,
      "scoring": 1726,
      "_sh": 1727,
      "Y_": 1728,
      "load_": 1729,
      ".,": 1730,
      "apping": 1731,
      "ithub": 1732,
      "cov": 1733,
      "_c": 1734,
      "ation_": 1735,
      "handl": 1736,
      "ages": 1737,
      "collection": 1738,
      "dant": 1739,
      "fin": 1740,
      "decision_function": 1741,
      "map": 1742,
      "defined": 1743,
      "ash": 1744,
      "Int": 1745,
      "step": 1746,
      "extra": 1747,
      "Mixin": 1748,
      "sen": 1749,
      "sp": 1750,
      "<=": 1751,
      "assert_almost_equal": 1752,
      "tes": 1753,
      "})": 1754,
      "deprecated": 1755,
      "off": 1756,
      "cook": 1757,
      "inver": 1758,
      "probabil": 1759,
      "Boo": 1760,
      "ak": 1761,
      "sting": 1762,
      "errors": 1763,
      "pos_label": 1764,
      "_n": 1765,
      "andard": 1766,
      "specifi": 1767,
      "mall": 1768,
      "compat": 1769,
      "closed": 1770,
      "━━": 1771,
      "ream": 1772,
      "ull": 1773,
      "DO": 1774,
      "github": 1775,
      "estim": 1776,
      "strateg": 1777,
      "99": 1778,
      "AS": 1779,
      "stop": 1780,
      "amb": 1781,
      "distribut": 1782,
      "vector": 1783,
      "consist": 1784,
      "mut": 1785,
      "methods": 1786,
      "l1_ratio": 1787,
      "\"$": 1788,
      "Gra": 1789,
      "y_test": 1790,
      "err_msg": 1791,
      "On": 1792,
      "y_score": 1793,
      "(-": 1794,
      "stack": 1795,
      "termin": 1796,
      "TAIN": 1797,
      "_CONTAIN": 1798,
      "2_": 1799,
      "process": 1800,
      "batch": 1801,
      "_CONTAINERS": 1802,
      "ced": 1803,
      "frame": 1804,
      "token": 1805,
      "provi": 1806,
      "write": 1807,
      "implement": 1808,
      "integer": 1809,
      "Le": 1810,
      "flask": 1811,
      "sq": 1812,
      "mult": 1813,
      "ory": 1814,
      "enable": 1815,
      "sour": 1816,
      "Wh": 1817,
      "cls": 1818,
      "dire": 1819,
      "Depen": 1820,
      "ature": 1821,
      "conftest": 1822,
      "body": 1823,
      "partial_": 1824,
      "read_": 1825,
      "preproces": 1826,
      "space": 1827,
      "unit": 1828,
      "empl": 1829,
      "T_": 1830,
      "ctx": 1831,
      "_indi": 1832,
      "={\"": 1833,
      "sign": 1834,
      "wid": 1835,
      "csr": 1836,
      "points": 1837,
      "SVC": 1838,
      ">`": 1839,
      "conne": 1840,
      "lamb": 1841,
      "parser": 1842,
      "ED": 1843,
      "ved": 1844,
      "30": 1845,
      "groups": 1846,
      "mble": 1847,
      "wer": 1848,
      "prefix": 1849,
      "after": 1850,
      "HTTPValidationError": 1851,
      "16": 1852,
      "diag": 1853,
      "depth": 1854,
      "cover": 1855,
      "422": 1856,
      "')": 1857,
      "_data": 1858,
      "ailable": 1859,
      "ping": 1860,
      "cache": 1861,
      "ia": 1862,
      ">`.": 1863,
      "ura": 1864,
      "add_": 1865,
      "attribute": 1866,
      "oid": 1867,
      "ify": 1868,
      "Note": 1869,
      "single": 1870,
      "PCA": 1871,
      "ities": 1872,
      "width": 1873,
      "lear": 1874,
      "local": 1875,
      "penal": 1876,
      "Option": 1877,
      "ener": 1878,
      "_init": 1879,
      "n_clusters": 1880,
      "bound": 1881,
      "blem": 1882,
      "convert": 1883,
      "amma": 1884,
      "source": 1885,
      "Scal": 1886,
      "constant": 1887,
      "changed": 1888,
      "allel": 1889,
      "based": 1890,
      "prior": 1891,
      "ICA": 1892,
      "Number": 1893,
      "TO": 1894,
      "ession": 1895,
      "plotlib": 1896,
      "mem": 1897,
      "_context": 1898,
      "state": 1899,
      "ner": 1900,
      "numer": 1901,
      "classes_": 1902,
      "cessful": 1903,
      "available": 1904,
      "uide": 1905,
      "overri": 1906,
      "_check_": 1907,
      "csr_container": 1908,
      "linear_model": 1909,
      "optional": 1910,
      "_params": 1911,
      "_score_": 1912,
      "SP": 1913,
      "Attribut": 1914,
      "ones": 1915,
      "ensemble": 1916,
      "eigen": 1917,
      "may": 1918,
      "bytes": 1919,
      "hether": 1920,
      "vis": 1921,
      "alphas": 1922,
      "_value": 1923,
      "problem": 1924,
      "you": 1925,
      "matplotlib": 1926,
      "known": 1927,
      ">=": 1928,
      "ten": 1929,
      "into": 1930,
      "lambda": 1931,
      "component": 1932,
      "reshape": 1933,
      "hess": 1934,
      "python": 1935,
      "labels_": 1936,
      "Col": 1937,
      "larg": 1938,
      "deg": 1939,
      "env": 1940,
      "etch": 1941,
      "outli": 1942,
      "ibr": 1943,
      "distribution": 1944,
      "original": 1945,
      "TypeError": 1946,
      "less": 1947,
      "curve": 1948,
      "display": 1949,
      "properties": 1950,
      "logging": 1951,
      "dd": 1952,
      "sity": 1953,
      "ags": 1954,
      "supported": 1955,
      "Suc": 1956,
      "there": 1957,
      "mock": 1958,
      "Out": 1959,
      "bed": 1960,
      "={": 1961,
      "ason": 1962,
      "pred_": 1963,
      "Tra": 1964,
      "perform": 1965,
      "multiclass": 1966,
      "uracy": 1967,
      "n_neighbors": 1968,
      "because": 1969,
      "yle": 1970,
      "onic": 1971,
      "ency": 1972,
      "inite": 1973,
      "ject": 1974,
      "test_s": 1975,
      "pol": 1976,
      "Fit": 1977,
      "earch": 1978,
      "evalu": 1979,
      "arget": 1980,
      "alg": 1981,
      "capture": 1982,
      "boolean": 1983,
      "Gradient": 1984,
      "shuffle": 1985,
      "effect": 1986,
      "strategy": 1987,
      "lim": 1988,
      "cross": 1989,
      "Meta": 1990,
      "wn_": 1991,
      "write_": 1992,
      "metric_": 1993,
      "_indices": 1994,
      "devel": 1995,
      "score_": 1996,
      "nest": 1997,
      "od_": 1998,
      "utf": 1999,
      "ted": 2000,
      "about": 2001,
      "requests": 2002,
      "dimension": 2003,
      "\\\\": 2004,
      "getattr": 2005,
      "ager": 2006,
      "Config": 2007,
      "Di": 2008,
      "ames": 2009,
      "setting": 2010,
      "_start": 2011,
      "detail": 2012,
      "Successful": 2013,
      "cut": 2014,
      "uniform": 2015,
      "position": 2016,
      ")),": 2017,
      "ey": 2018,
      "ments": 2019,
      "paths": 2020,
      "precomputed": 2021,
      "all_": 2022,
      "noise": 2023,
      "ele": 2024,
      "Decision": 2025,
      "_scores": 2026,
      "rc": 2027,
      "clone": 2028,
      "otonic": 2029,
      "Set": 2030,
      "':": 2031,
      "Fr": 2032,
      "invalid": 2033,
      "s__": 2034,
      "initial": 2035,
      "accuracy": 2036,
      "bf": 2037,
      "Fun": 2038,
      "param_": 2039,
      "cies": 2040,
      "inv": 2041,
      "_schema": 2042,
      "Iter": 2043,
      "squar": 2044,
      "Rid": 2045,
      "Ridge": 2046,
      "Guide": 2047,
      "on_": 2048,
      "proba": 2049,
      "Scaler": 2050,
      "CSR": 2051,
      "operationId": 2052,
      "ink": 2053,
      "upport": 2054,
      "typing": 2055,
      "Integ": 2056,
      "thro": 2057,
      "vergen": 2058,
      "_selection": 2059,
      "({\"": 2060,
      "orial": 2061,
      "arange": 2062,
      "utorial": 2063,
      "calls": 2064,
      "24": 2065,
      "_fit_": 2066,
      "small": 2067,
      "tutorial": 2068,
      "contin": 2069,
      "develop": 2070,
      "_for": 2071,
      "recor": 2072,
      "olver": 2073,
      "regular": 2074,
      "_and_": 2075,
      "db": 2076,
      "vergence": 2077,
      "follow": 2078,
      "Search": 2079,
      "med": 2080,
      "select": 2081,
      "issu": 2082,
      "min_samples": 2083,
      "ule": 2084,
      "15": 2085,
      "fiel": 2086,
      "while": 2087,
      "data_routing": 2088,
      "Only": 2089,
      "Gaussian": 2090,
      "connect": 2091,
      "regressor": 2092,
      "targets": 2093,
      "optim": 2094,
      "Gener": 2095,
      "ucli": 2096,
      "dean": 2097,
      "options": 2098,
      "Boosting": 2099,
      "uclidean": 2100,
      ")]": 2101,
      "just": 2102,
      "very": 2103,
      "bins": 2104,
      "scale": 2105,
      "When": 2106,
      "dum": 2107,
      "keys": 2108,
      "exceptions": 2109,
      "math": 2110,
      "BaseModel": 2111,
      "sy": 2112,
      "called": 2113,
      "traceback": 2114,
      "14": 2115,
      "py3": 2116,
      "grid": 2117,
      "ical_": 2118,
      "ixture": 2119,
      "=[\"": 2120,
      "before": 2121,
      "details": 2122,
      "AL": 2123,
      "n_iter_": 2124,
      "Integral": 2125,
      "through": 2126,
      "Lasso": 2127,
      "stream": 2128,
      "consid": 2129,
      "Ident": 2130,
      "snapshot": 2131,
      "\"--": 2132,
      "plot_": 2133,
      "Callable": 2134,
      "uture": 2135,
      "rt": 2136,
      "uments": 2137,
      "n_features_in_": 2138,
      "long": 2139,
      "Cla": 2140,
      "cret": 2141,
      "criter": 2142,
      "Po": 2143,
      "orch": 2144,
      "threshol": 2145,
      "feature_names_out": 2146,
      "drop": 2147,
      "SG": 2148,
      "_class": 2149,
      "location": 2150,
      "raw_prediction": 2151,
      "agg": 2152,
      "cach": 2153,
      "cket": 2154,
      "Qu": 2155,
      "filen": 2156,
      "tim": 2157,
      "char": 2158,
      "ised": 2159,
      "Examples": 2160,
      "constraints": 2161,
      "repe": 2162,
      "\"))": 2163,
      "Neighbors": 2164,
      "tho": 2165,
      "ill": 2166,
      "Comput": 2167,
      "``,": 2168,
      "percent": 2169,
      "weighted": 2170,
      "would": 2171,
      "ways": 2172,
      "issues": 2173,
      "centers": 2174,
      "ML": 2175,
      "action": 2176,
      "beta": 2177,
      "parallel": 2178,
      "multiple": 2179,
      "_sample_weight": 2180,
      "ICAg": 2181,
      "ating": 2182,
      "let": 2183,
      "appl": 2184,
      "Real": 2185,
      "buil": 2186,
      "iss": 2187,
      "fetch": 2188,
      "exist": 2189,
      "prefer": 2190,
      "argument": 2191,
      "negative": 2192,
      "py310": 2193,
      "gamma": 2194,
      "ival": 2195,
      "lr": 2196,
      "Fe": 2197,
      "ce_": 2198,
      "SearchCV": 2199,
      "_missing": 2200,
      "clustering": 2201,
      "13": 2202,
      "returned": 2203,
      "reason": 2204,
      "default_": 2205,
      "quantile": 2206,
      "Function": 2207,
      "red": 2208,
      "mean_": 2209,
      "--------------------------------": 2210,
      "randn": 2211,
      "_M": 2212,
      "n_estimators": 2213,
      "such": 2214,
      "tear": 2215,
      "seen": 2216,
      "expl": 2217,
      "iterations": 2218,
      "Raises": 2219,
      "learn_": 2220,
      "gb": 2221,
      "developers": 2222,
      "Lic": 2223,
      "exp": 2224,
      "provided": 2225,
      "dius": 2226,
      "categorical": 2227,
      "header": 2228,
      "help": 2229,
      "License": 2230,
      "as_": 2231,
      "common": 2232,
      "sim": 2233,
      "lik": 2234,
      "ilabel": 2235,
      "linalg": 2236,
      "models": 2237,
      "returns": 2238,
      "ids": 2239,
      "vir": 2240,
      "_error": 2241,
      "kind": 2242,
      "correspon": 2243,
      "ICAgICAg": 2244,
      "here": 2245,
      "rtol": 2246,
      "sw": 2247,
      "penalty": 2248,
      "GradientBoosting": 2249,
      "ese": 2250,
      "ither": 2251,
      "legen": 2252,
      "formation": 2253,
      "RI": 2254,
      "rank": 2255,
      "ton": 2256,
      "zero_": 2257,
      "lease": 2258,
      "strict": 2259,
      "unk": 2260,
      "attributes": 2261,
      "plicit": 2262,
      "zip": 2263,
      "learning_": 2264,
      "DX": 2265,
      "wise_": 2266,
      "warm": 2267,
      "_file": 2268,
      "field": 2269,
      "comm": 2270,
      "ically": 2271,
      "colors": 2272,
      "Open": 2273,
      "criterion": 2274,
      "Ass": 2275,
      "sin": 2276,
      "Enco": 2277,
      "BSD": 2278,
      "omial": 2279,
      "raw": 2280,
      "abet": 2281,
      "partial": 2282,
      "Identifier": 2283,
      "rv": 2284,
      "category": 2285,
      "SPDX": 2286,
      "gs": 2287,
      "hist": 2288,
      "Clause": 2289,
      "~~": 2290,
      "Authors": 2291,
      "ptr": 2292,
      "constru": 2293,
      "how": 2294,
      "Of": 2295,
      "update": 2296,
      "18": 2297,
      "represent": 2298,
      "produ": 2299,
      "dantic": 2300,
      "33": 2301,
      "OS": 2302,
      "lector": 2303,
      "_sv": 2304,
      "vie": 2305,
      "raised": 2306,
      "_scorer": 2307,
      "ules": 2308,
      "class_weight": 2309,
      "handle": 2310,
      "euclidean": 2311,
      "ly_": 2312,
      "method_": 2313,
      "1000": 2314,
      "les": 2315,
      "_index": 2316,
      "lat": 2317,
      "under": 2318,
      "model_": 2319,
      "++": 2320,
      "diabet": 2321,
      "directory": 2322,
      "n_samples_": 2323,
      "_sparse_": 2324,
      "[{\"": 2325,
      "go": 2326,
      "username": 2327,
      "current_": 2328,
      "vid": 2329,
      "enum": 2330,
      "chunk": 2331,
      "excinfo": 2332,
      "dec": 2333,
      "document": 2334,
      "bers": 2335,
      "override": 2336,
      "SGD": 2337,
      "absolut": 2338,
      "vect": 2339,
      "cross_": 2340,
      "\"\\": 2341,
      "X_trans": 2342,
      "intercept_": 2343,
      "Options": 2344,
      "a_": 2345,
      "\")],": 2346,
      "uses": 2347,
      "lower": 2348,
      "issue": 2349,
      "own": 2350,
      "_solver": 2351,
      "TODO": 2352,
      "Ch": 2353,
      "ighbor": 2354,
      "Key": 2355,
      "atol": 2356,
      "_mask": 2357,
      "equival": 2358,
      "sqrt": 2359,
      "seed": 2360,
      "sph": 2361,
      "thing": 2362,
      "EN": 2363,
      "IL": 2364,
      "Multi": 2365,
      "Ser": 2366,
      "uration": 2367,
      ")):": 2368,
      "_skip_": 2369,
      "Depends": 2370,
      "diabetes": 2371,
      "ving": 2372,
      "Field": 2373,
      "testing": 2374,
      "Fold": 2375,
      "t_": 2376,
      "rid_": 2377,
      "xx": 2378,
      "plo": 2379,
      "top": 2380,
      "coeffici": 2381,
      "Forest": 2382,
      "17": 2383,
      "hash": 2384,
      ")(": 2385,
      "rink": 2386,
      "_sum": 2387,
      "pyplot": 2388,
      "found": 2389,
      "remove": 2390,
      "_splits": 2391,
      "Router": 2392,
      ",),": 2393,
      "_dtype": 2394,
      "bug": 2395,
      "generated": 2396,
      "org": 2397,
      "ravel": 2398,
      "_features": 2399,
      "ow": 2400,
      "dictionary": 2401,
      "preprocessing": 2402,
      "likel": 2403,
      "dig": 2404,
      "dependencies": 2405,
      "AT": 2406,
      "Sparse": 2407,
      "regist": 2408,
      "make_classification": 2409,
      "Inp": 2410,
      "Use": 2411,
      "{'": 2412,
      "Input": 2413,
      "cator": 2414,
      "abc": 2415,
      "importlib": 2416,
      "degree": 2417,
      "19": 2418,
      "rate": 2419,
      "Also": 2420,
      "create_": 2421,
      "pick": 2422,
      "torch": 2423,
      "ord": 2424,
      "fitting": 2425,
      "multilabel": 2426,
      "iteration": 2427,
      "ib": 2428,
      "calibr": 2429,
      "\"-": 2430,
      "assum": 2431,
      "array_namespace": 2432,
      "ld": 2433,
      "information": 2434,
      "fill": 2435,
      "poss": 2436,
      "ident": 2437,
      "to_": 2438,
      "complex": 2439,
      "Assert": 2440,
      "requent": 2441,
      "Default": 2442,
      "not_": 2443,
      "Names": 2444,
      "cm": 2445,
      "tures": 2446,
      "_is_": 2447,
      "ols": 2448,
      "axes": 2449,
      "warns": 2450,
      "Frame": 2451,
      "ry": 2452,
      "least": 2453,
      "callbacks": 2454,
      "Encoder": 2455,
      "hy": 2456,
      "simple": 2457,
      "''": 2458,
      "change": 2459,
      "model_selection": 2460,
      "light": 2461,
      "ov": 2462,
      "gress": 2463,
      "average_": 2464,
      "_count": 2465,
      "eno": 2466,
      "embed": 2467,
      "boun": 2468,
      "pairwise_": 2469,
      "always": 2470,
      "ity_": 2471,
      "toarray": 2472,
      "BaseEstimator": 2473,
      "stor": 2474,
      "Attribute": 2475,
      "thresholds": 2476,
      "block": 2477,
      "my_": 2478,
      "xfail": 2479,
      "tot": 2480,
      "got": 2481,
      "grid_": 2482,
      "_squar": 2483,
      "ell": 2484,
      "int64": 2485,
      "generator": 2486,
      "cc": 2487,
      "oth": 2488,
      "validation_alias": 2489,
      "_exclude": 2490,
      "{}}": 2491,
      ":]": 2492,
      "chain": 2493,
      "max_features": 2494,
      "Fixture": 2495,
      "_matrix": 2496,
      "cand": 2497,
      "price": 2498,
      "offset": 2499,
      "#:": 2500,
      "replace": 2501,
      "avoid": 2502,
      "sa": 2503,
      "cluster_": 2504,
      "viron": 2505,
      "gre": 2506,
      "partial_fit": 2507,
      "components_": 2508,
      ")],": 2509,
      "n_splits": 2510,
      "scorer": 2511,
      "bre": 2512,
      "property": 2513,
      "stopping": 2514,
      "svd": 2515,
      "75": 2516,
      "ound": 2517,
      "syn": 2518,
      "reprec": 2519,
      "ilar": 2520,
      "tree_": 2521,
      "ves": 2522,
      "disp": 2523,
      "modules": 2524,
      "DecisionTree": 2525,
      "\"`": 2526,
      "bit": 2527,
      "lr_": 2528,
      "onal": 2529,
      "roc_": 2530,
      "int32": 2531,
      "functions": 2532,
      "works": 2533,
      "ered": 2534,
      "strings": 2535,
      "column_": 2536,
      "refer": 2537,
      "dependency": 2538,
      "Standard": 2539,
      "response_method": 2540,
      "handler": 2541,
      "raction": 2542,
      "_sklearn_": 2543,
      "^^^^": 2544,
      "(*": 2545,
      "remain": 2546,
      "etric": 2547,
      "parameter_": 2548,
      "inverse_": 2549,
      "ery": 2550,
      "they": 2551,
      "JS": 2552,
      "](": 2553,
      "next": 2554,
      "ont": 2555,
      "pattern": 2556,
      "curity": 2557,
      "_extra": 2558,
      "nested_": 2559,
      "warm_start": 2560,
      "File": 2561,
      "_loss": 2562,
      "rep": 2563,
      "rows": 2564,
      "find": 2565,
      "ences": 2566,
      "combin": 2567,
      "_min": 2568,
      "Train": 2569,
      "following": 2570,
      "ice": 2571,
      "cho": 2572,
      "StrOptions": 2573,
      "Bod": 2574,
      "UR": 2575,
      "fixtures": 2576,
      "static": 2577,
      "(\"--": 2578,
      "max_depth": 2579,
      "tmp": 2580,
      "DataFrame": 2581,
      "Compute": 2582,
      "With": 2583,
      "_level": 2584,
      "results_": 2585,
      "anced": 2586,
      "body_": 2587,
      "filename": 2588,
      "view": 2589,
      "cul": 2590,
      "check_array": 2591,
      "web": 2592,
      "estimators_": 2593,
      "is_fitted": 2594,
      "ID": 2595,
      "iho": 2596,
      "JSON": 2597,
      "Mod": 2598,
      "x_": 2599,
      "incre": 2600,
      "500": 2601,
      "TY": 2602,
      "To": 2603,
      "sequ": 2604,
      "est_": 2605,
      "active": 2606,
      "manager": 2607,
      "Max": 2608,
      "erate": 2609,
      "sorted": 2610,
      "candidat": 2611,
      "auc": 2612,
      "arguments": 2613,
      "break": 2614,
      "resol": 2615,
      "null": 2616,
      "rag": 2617,
      "ango": 2618,
      "mk": 2619,
      "izes": 2620,
      "users": 2621,
      "1_": 2622,
      "][": 2623,
      "contains": 2624,
      "origin": 2625,
      "hessian": 2626,
      "neighbor": 2627,
      "StandardScaler": 2628,
      "alys": 2629,
      "alysis": 2630,
      "KFold": 2631,
      "Whether": 2632,
      "most": 2633,
      "pop": 2634,
      "actual": 2635,
      "enumerate": 2636,
      "ector": 2637,
      "pur": 2638,
      "resour": 2639,
      "base_": 2640,
      "compute_": 2641,
      "ING": 2642,
      "Grid": 2643,
      "vent": 2644,
      "als": 2645,
      "probability": 2646,
      "UserWarning": 2647,
      "Pi": 2648,
      "ench": 2649,
      "||": 2650,
      "comes": 2651,
      "joinpath": 2652,
      "tiango": 2653,
      "tiangolo": 2654,
      "face": 2655,
      "_examples": 2656,
      "pairwise": 2657,
      "blue": 2658,
      "fetch_": 2659,
      "div": 2660,
      "dtype_name": 2661,
      "generate_": 2662,
      "reset": 2663,
      "binn": 2664,
      "dispatch": 2665,
      "CSR_CONTAINERS": 2666,
      "likeliho": 2667,
      "(\"-": 2668,
      "power": 2669,
      "permut": 2670,
      "categorical_": 2671,
      "response_model_exclude": 2672,
      "them": 2673,
      "set_params": 2674,
      "_array": 2675,
      "path_": 2676,
      "beha": 2677,
      "centered": 2678,
      "i_": 2679,
      "numbers": 2680,
      "predicted": 2681,
      "_time": 2682,
      "vectors": 2683,
      "Kernel": 2684,
      "Pass": 2685,
      "final": 2686,
      "tri": 2687,
      "check_is_fitted": 2688,
      "regularization": 2689,
      "shrink": 2690,
      "ndim": 2691,
      "threads": 2692,
      "TION": 2693,
      "Metadata": 2694,
      "possible": 2695,
      "05": 2696,
      "22": 2697,
      "AM": 2698,
      "leg": 2699,
      "_meta": 2700,
      "ignore_": 2701,
      "Hal": 2702,
      "/\",": 2703,
      "_log": 2704,
      "lasso": 2705,
      "redu": 2706,
      "environ": 2707,
      "password": 2708,
      "alpha_": 2709,
      "hyper": 2710,
      "Module": 2711,
      "IS": 2712,
      "Label": 2713,
      "ases": 2714,
      "_support": 2715,
      "doesn": 2716,
      "large": 2717,
      "Assertion": 2718,
      "radius": 2719,
      "_tags": 2720,
      "__sklearn_": 2721,
      "their": 2722,
      "factor": 2723,
      "/{": 2724,
      "/\")": 2725,
      "Foo": 2726,
      "cast": 2727,
      "ww": 2728,
      "outputs": 2729,
      "host": 2730,
      "dom": 2731,
      "net": 2732,
      "delta": 2733,
      "annotation": 2734,
      "train_test": 2735,
      "ASS": 2736,
      "TYP": 2737,
      "wa": 2738,
      "style": 2739,
      "pk": 2740,
      "create": 2741,
      "catter": 2742,
      "even": 2743,
      "aa": 2744,
      "assign": 2745,
      "informat": 2746,
      "now": 2747,
      "_input": 2748,
      "cookie": 2749,
      "continue": 2750,
      "CO": 2751,
      "Sequ": 2752,
      "testclient": 2753,
      "etime": 2754,
      "sets": 2755,
      "cannot": 2756,
      "behavi": 2757,
      "f_": 2758,
      "decom": 2759,
      "issparse": 2760,
      "get_namespace": 2761,
      "Cre": 2762,
      "Hel": 2763,
      "Non": 2764,
      "templ": 2765,
      "config_context": 2766,
      "_module": 2767,
      "train_test_split": 2768,
      "RO": 2769,
      "UN": 2770,
      "transformed": 2771,
      "usion": 2772,
      "pec": 2773,
      "encoder": 2774,
      "bal": 2775,
      "collections": 2776,
      "entry": 2777,
      "test_foo": 2778,
      "subplot": 2779,
      "memory": 2780,
      "percentile": 2781,
      "_skip_nested_": 2782,
      "_skip_nested_validation": 2783,
      "_output": 2784,
      "lang": 2785,
      "prefer_skip_nested_validation": 2786,
      "Pipe": 2787,
      "Fa": 2788,
      "rest": 2789,
      "NO": 2790,
      "PL": 2791,
      "learning": 2792,
      "anyOf": 2793,
      "Fl": 2794,
      "recall": 2795,
      "multioutput": 2796,
      "imputer": 2797,
      "section": 2798,
      "versionchanged": 2799,
      "Means": 2800,
      "inclu": 2801,
      "explicit": 2802,
      "nn": 2803,
      "image": 2804,
      "doc_": 2805,
      "Info": 2806,
      "socket": 2807,
      "Code": 2808,
      "determin": 2809,
      "]))": 2810,
      "obser": 2811,
      "Python": 2812,
      "Context": 2813,
      "Pipeline": 2814,
      "class_": 2815,
      "dtypes": 2816,
      "query_": 2817,
      "━━━━": 2818,
      "OpenAPI": 2819,
      "Vector": 2820,
      "y_pred_": 2821,
      "ready": 2822,
      "DE": 2823,
      "Name": 2824,
      "];": 2825,
      "modi": 2826,
      "generate": 2827,
      "informative": 2828,
      "gram": 2829,
      "impro": 2830,
      "datetime": 2831,
      "monotonic": 2832,
      "starts": 2833,
      "Feature": 2834,
      "Mon": 2835,
      "uous": 2836,
      "steps": 2837,
      "come": 2838,
      "scatter": 2839,
      "keep": 2840,
      "skipped": 2841,
      "################################": 2842,
      "_check": 2843,
      "fs": 2844,
      "ingClassifier": 2845,
      "Ap": 2846,
      "Session": 2847,
      "_estimator": 2848,
      "Flask": 2849,
      "'.": 2850,
      "_get": 2851,
      "unch": 2852,
      "marker": 2853,
      "tick": 2854,
      "condition": 2855,
      "intern": 2856,
      "package": 2857,
      "parameter_constraints": 2858,
      "check_random_state": 2859,
      "ETRI": 2860,
      "mapping": 2861,
      "comp": 2862,
      "Loss": 2863,
      "_with_": 2864,
      "GridSearchCV": 2865,
      "Sh": 2866,
      "45": 2867,
      "(\"/\")": 2868,
      "disable": 2869,
      "oob": 2870,
      "side": 2871,
      "status": 2872,
      "consistent": 2873,
      "ze": 2874,
      "endpoint": 2875,
      "tags__": 2876,
      "80": 2877,
      "prag": 2878,
      "ize_": 2879,
      "derr": 2880,
      "copy_": 2881,
      "scaler": 2882,
      "array_api_": 2883,
      "__sklearn_tags__": 2884,
      "Bin": 2885,
      "Per": 2886,
      "b_": 2887,
      "x1": 2888,
      "ified": 2889,
      "curve_": 2890,
      "indicator": 2891,
      "cv_results": 2892,
      "digits": 2893,
      "pragma": 2894,
      "ross": 2895,
      "exe": 2896,
      "constructor": 2897,
      "equivalent": 2898,
      "erance": 2899,
      "new_": 2900,
      "limit": 2901,
      "catch": 2902,
      "ExceptionGroup": 2903,
      "Import": 2904,
      "don": 2905,
      "future": 2906,
      "want": 2907,
      "validate_data": 2908,
      "probabilities": 2909,
      "Cur": 2910,
      "Ma": 2911,
      "mm": 2912,
      "Exit": 2913,
      "SVM": 2914,
      ">\",": 2915,
      "decomposition": 2916,
      "(`": 2917,
      "matrices": 2918,
      "Dict": 2919,
      "coefficients": 2920,
      "feature_names_in_": 2921,
      "_scale": 2922,
      "Runt": 2923,
      "missing_values": 2924,
      "_shape": 2925,
      "Runtime": 2926,
      "\"\",": 2927,
      "Cal": 2928,
      "these": 2929,
      "debug": 2930,
      "stderr": 2931,
      "val_": 2932,
      "objects": 2933,
      "from_estimator": 2934,
      "AN": 2935,
      "Get": 2936,
      "cp": 2937,
      "lot": 2938,
      "previ": 2939,
      "checks": 2940,
      "nodeid": 2941,
      "-----": 2942,
      "ables": 2943,
      "project": 2944,
      "last_": 2945,
      "times": 2946,
      "KMeans": 2947,
      "_parameter_constraints": 2948,
      "importances": 2949,
      "X_y": 2950,
      "Ho": 2951,
      "since": 2952,
      "Na": 2953,
      "trun": 2954,
      "binar": 2955,
      "_router": 2956,
      "thod": 2957,
      "ries": 2958,
      "coefs": 2959,
      "words": 2960,
      "first_": 2961,
      ".*": 2962,
      "LO": 2963,
      "fold": 2964,
      "second": 2965,
      "ic_": 2966,
      "maximum": 2967,
      "configuration": 2968,
      "failure": 2969,
      "Method": 2970,
      "sparse_container": 2971,
      "specified": 2972,
      "Sequence": 2973,
      ")[": 2974,
      "_default": 2975,
      "iles": 2976,
      "AssertionError": 2977,
      "Ali": 2978,
      "rol": 2979,
      "000": 2980,
      "ridge": 2981,
      "approxim": 2982,
      "legend": 2983,
      "decimal": 2984,
      "afe_": 2985,
      "outliers": 2986,
      "Query": 2987,
      "*\"])": 2988,
      "_leaf": 2989,
      "already": 2990,
      "_namespace": 2991,
      "joblib": 2992,
      "flat": 2993,
      "List": 2994,
      "omat": 2995,
      "ely": 2996,
      "n_targets": 2997,
      "path1": 2998,
      "Message": 2999,
      "ark": 3000,
      "decor": 3001,
      "cv_results_": 3002,
      "AC": 3003,
      "Pl": 3004,
      "clf_": 3005,
      "total": 3006,
      "['": 3007,
      "`\"": 3008,
      "_to_": 3009,
      ".\",": 3010,
      "ge_": 3011,
      "xy": 3012,
      "ivity": 3013,
      "randint": 3014,
      "Callback": 3015,
      "similar": 3016,
      "Alias": 3017,
      "TS": 3018,
      "in_": 3019,
      "separ": 3020,
      "reach": 3021,
      "unter": 3022,
      "newton": 3023,
      "otherwise": 3024,
      "{}}},": 3025,
      "X2": 3026,
      "_target": 3027,
      "inverse": 3028,
      "websocket": 3029,
      "Xt": 3030,
      "ish": 3031,
      "row_": 3032,
      "meas": 3033,
      "trees": 3034,
      "pickle": 3035,
      "Hist": 3036,
      "nr_": 3037,
      "dev": 3038,
      "ed_error": 3039,
      ")))": 3040,
      "metadata_routing": 3041,
      "inverse_transform": 3042,
      "ffinit": 3043,
      "_request": 3044,
      "iel": 3045,
      "pes": 3046,
      "been": 3047,
      "]]),": 3048,
      "_is": 3049,
      "ermin": 3050,
      "transformers": 3051,
      "123": 3052,
      "ame_": 3053,
      "n_bins": 3054,
      "kernels": 3055,
      "required_": 3056,
      "ires": 3057,
      "l2": 3058,
      "ual_": 3059,
      "once": 3060,
      "isson": 3061,
      "assertion": 3062,
      "teardown": 3063,
      "cape": 3064,
      "sig": 3065,
      "xt": 3066,
      "bounds": 3067,
      "pkg": 3068,
      ".\")": 3069,
      "UL": 3070,
      "params_": 3071,
      "_multi": 3072,
      "plugins": 3073,
      "wait": 3074,
      "bel": 3075,
      "by_": 3076,
      "ylabel": 3077,
      "standard": 3078,
      "ability": 3079,
      "TYPE": 3080,
      "Is": 3081,
      "cy_": 3082,
      "theta": 3083,
      "loss_": 3084,
      "global_dtype": 3085,
      "`).": 3086,
      "calcul": 3087,
      "marks": 3088,
      "tolerance": 3089,
      "Parameter": 3090,
      "TES": 3091,
      "Target": 3092,
      "_version": 3093,
      "either": 3094,
      "gl": 3095,
      "stem": 3096,
      "per_": 3097,
      "fields": 3098,
      "Add": 3099,
      "class__": 3100,
      "ily": 3101,
      "_text": 3102,
      "kip": 3103,
      "sli": 3104,
      "consistency": 3105,
      "implementation": 3106,
      "Body": 3107,
      "HE": 3108,
      "kl": 3109,
      "escape": 3110,
      "perm": 3111,
      "passthrough": 3112,
      "ignored": 3113,
      "({": 3114,
      "FA": 3115,
      "_sw": 3116,
      "could": 3117,
      "_finite": 3118,
      "indptr": 3119,
      "X_sparse": 3120,
      "ivel": 3121,
      "My": 3122,
      "uch": 3123,
      "}\",": 3124,
      "Select": 3125,
      "URL": 3126,
      "ETRICS": 3127,
      "</": 3128,
      "FI": 3129,
      "pydantic": 3130,
      "get_feature_names_out": 3131,
      "ired": 3132,
      "make_pipeline": 3133,
      "update_": 3134,
      "mix": 3135,
      "exact": 3136,
      "precation": 3137,
      "minimum": 3138,
      "Mapping": 3139,
      "_S": 3140,
      "ection": 3141,
      "imin": 3142,
      "type_": 3143,
      "test_1": 3144,
      "\"})": 3145,
      "_repr": 3146,
      "([\"*": 3147,
      "write_text": 3148,
      "ively": 3149,
      "xlabel": 3150,
      "figure": 3151,
      "across": 3152,
      "server": 3153,
      "vs": 3154,
      "__class__": 3155,
      "directly": 3156,
      "_cst": 3157,
      "repeat": 3158,
      "RaisesGroup": 3159,
      "pairwise_distances": 3160,
      "Vectorizer": 3161,
      "Dum": 3162,
      "Net": 3163,
      "ite": 3164,
      "Report": 3165,
      "use_": 3166,
      "validate": 3167,
      "release": 3168,
      "Analysis": 3169,
      "(#": 3170,
      "(**": 3171,
      "stra": 3172,
      "examples": 3173,
      "auto_examples": 3174,
      "annotations": 3175,
      "Dummy": 3176,
      "Or": 3177,
      "blob": 3178,
      "importance": 3179,
      "automat": 3180,
      "correctly": 3181,
      "startswith": 3182,
      "23": 3183,
      "inner": 3184,
      "orskip": 3185,
      "selection": 3186,
      "ison": 3187,
      "fixed": 3188,
      "optional_": 3189,
      "sym": 3190,
      "embedding": 3191,
      "By": 3192,
      "done": 3193,
      "configure": 3194,
      "early_": 3195,
      "confusion": 3196,
      "leav": 3197,
      "test_func": 3198,
      "ed_params": 3199,
      "_regression": 3200,
      "enabled": 3201,
      "numeric": 3202,
      "learning_rate": 3203,
      "abo": 3204,
      "roc_auc": 3205,
      "ures": 3206,
      "well": 3207,
      "outcomes": 3208,
      "squared": 3209,
      "importorskip": 3210,
      "_by_": 3211,
      "tutorial00": 3212,
      "ward": 3213,
      "atified": 3214,
      "round": 3215,
      "better": 3216,
      "Cap": 3217,
      "OL": 3218,
      "inline_": 3219,
      "===": 3220,
      "lineno": 3221,
      "fit_params": 3222,
      "mkdir": 3223,
      "hal": 3224,
      "temp": 3225,
      "near": 3226,
      "best_": 3227,
      "event": 3228,
      "accept_sparse": 3229,
      "Elast": 3230,
      "cert": 3231,
      "requires": 3232,
      "logger": 3233,
      "structure": 3234,
      "Elastic": 3235,
      "home": 3236,
      "world": 3237,
      "Case": 3238,
      "real": 3239,
      "Refer": 3240,
      "return_X_y": 3241,
      "addition": 3242,
      "tasks": 3243,
      "jection": 3244,
      "sag": 3245,
      "nonzero": 3246,
      "AttributeError": 3247,
      "Exc": 3248,
      "lossary": 3249,
      "strip": 3250,
      "det": 3251,
      "caller": 3252,
      "Cont": 3253,
      "LinearRegression": 3254,
      "dimensional": 3255,
      "HistGradientBoosting": 3256,
      "XX": 3257,
      "linspace": 3258,
      "[(": 3259,
      "na": 3260,
      "__get": 3261,
      "via": 3262,
      "grad": 3263,
      "great": 3264,
      "neighbors_": 3265,
      "boot": 3266,
      "likelihood": 3267,
      "previous": 3268,
      "\"'": 3269,
      "]}": 3270,
      "_xp": 3271,
      "inline": 3272,
      "impur": 3273,
      "exclude": 3274,
      "comment": 3275,
      "short": 3276,
      "non_": 3277,
      "scaling": 3278,
      "ordin": 3279,
      "Create": 3280,
      "_list": 3281,
      "ger": 3282,
      "_session": 3283,
      "__future": 3284,
      "_templ": 3285,
      "ocab": 3286,
      "++)": 3287,
      "Capture": 3288,
      "__future__": 3289,
      "IT": 3290,
      "calle": 3291,
      "filterwarnings": 3292,
      "unittest": 3293,
      "pload": 3294,
      "measure": 3295,
      "98": 3296,
      "\"]),": 3297,
      "log_loss": 3298,
      "solution": 3299,
      "inspect": 3300,
      "above": 3301,
      "Patch": 3302,
      "_if": 3303,
      "ky": 3304,
      "ative_": 3305,
      "median": 3306,
      "affinit": 3307,
      "f1": 3308,
      "reng": 3309,
      "ilon": 3310,
      "preser": 3311,
      "httpbin": 3312,
      "rength": 3313,
      "cg": 3314,
      "construct": 3315,
      "batch_size": 3316,
      "field_": 3317,
      "_method": 3318,
      "ie_": 3319,
      "ution": 3320,
      "openml": 3321,
      "fitted_": 3322,
      "Imput": 3323,
      "*.": 3324,
      "*=": 3325,
      "66": 3326,
      "hn": 3327,
      "n_threads": 3328,
      "csc": 3329,
      "domain": 3330,
      ")}": 3331,
      "lbf": 3332,
      "att": 3333,
      "feature_": 3334,
      "known_": 3335,
      "record": 3336,
      "Hello": 3337,
      "Ad": 3338,
      "Split": 3339,
      "false": 3340,
      "might": 3341,
      "param_g": 3342,
      "transformer_": 3343,
      "subset": 3344,
      "doctest": 3345,
      "ually": 3346,
      "redirect": 3347,
      "chance": 3348,
      "too": 3349,
      "tran": 3350,
      "setattr": 3351,
      "interaction": 3352,
      "Make": 3353,
      "_warnings": 3354,
      "still": 3355,
      "again": 3356,
      "user_": 3357,
      "inputs": 3358,
      "validate_params": 3359,
      "encoded": 3360,
      "load_iris": 3361,
      "connectivity": 3362,
      "resources": 3363,
      "Det": 3364,
      "Glossary": 3365,
      "_str": 3366,
      "_label": 3367,
      "vocab": 3368,
      "send": 3369,
      "_prob": 3370,
      "dependence": 3371,
      "performance": 3372,
      "device_name": 3373,
      "Cook": 3374,
      "diagonal": 3375,
      "LE": 3376,
      "modifi": 3377,
      "_y": 3378,
      "ws": 3379,
      "refit": 3380,
      "exit": 3381,
      "y_proba": 3382,
      "Mark": 3383,
      "make_regression": 3384,
      "specific": 3385,
      "effective_": 3386,
      "_dict": 3387,
      "tax": 3388,
      "\"\"\",": 3389,
      "_weights": 3390,
      "_tree": 3391,
      "splits": 3392,
      "wrapped": 3393,
      "those": 3394,
      "rary": 3395,
      "y2": 3396,
      "_snapshot": 3397,
      "rob": 3398,
      "n_init": 3399,
      "Extra": 3400,
      "computation": 3401,
      "averag": 3402,
      "element": 3403,
      "_metadata_routing": 3404,
      "IO": 3405,
      "]):": 3406,
      "_on_": 3407,
      "cd": 3408,
      "chol": 3409,
      "_task": 3410,
      "95": 3411,
      "fpr": 3412,
      "istr": 3413,
      "security": 3414,
      "kernel_": 3415,
      "exists": 3416,
      "blueprint": 3417,
      "being": 3418,
      "dense_": 3419,
      "elements": 3420,
      "apply": 3421,
      "remainder": 3422,
      "enchmark": 3423,
      "Curve": 3424,
      "_all": 3425,
      "x_g": 3426,
      "_src": 3427,
      "down_": 3428,
      "\"].": 3429,
      "RandomForest": 3430,
      "absolute": 3431,
      "K_": 3432,
      "_url": 3433,
      "cases": 3434,
      "tw": 3435,
      "pose": 3436,
      "safe": 3437,
      ":.": 3438,
      "epsilon": 3439,
      "Em": 3440,
      "effici": 3441,
      "...,": 3442,
      ")\"": 3443,
      "free": 3444,
      "_message": 3445,
      "clf2": 3446,
      "_title": 3447,
      "balanced": 3448,
      "date": 3449,
      "note": 3450,
      "parts": 3451,
      "_fit_context": 3452,
      "division": 3453,
      "adjust": 3454,
      "ridge_": 3455,
      "ied": 3456,
      "ated_": 3457,
      "req": 3458,
      "resp": 3459,
      "folds": 3460,
      "Cookie": 3461,
      "Mini": 3462,
      "none": 3463,
      "lead": 3464,
      "rict": 3465,
      "umn": 3466,
      "astic": 3467,
      "cols": 3468,
      "sum_": 3469,
      "compare": 3470,
      "Column": 3471,
      "All": 3472,
      "every": 3473,
      "whether": 3474,
      "ility": 3475,
      "lying": 3476,
      "comparison": 3477,
      "categorical_features": 3478,
      "So": 3479,
      "defs": 3480,
      "consum": 3481,
      "classifiers": 3482,
      "duration": 3483,
      "terminal": 3484,
      "command": 3485,
      "Min": 3486,
      "max_samples": 3487,
      "sphx_g": 3488,
      "Half": 3489,
      "sphx_glr_": 3490,
      "`'": 3491,
      "mi": 3492,
      "r2": 3493,
      "asing": 3494,
      "0000": 3495,
      "inline_run": 3496,
      "Plot": 3497,
      "convergence": 3498,
      "addo": 3499,
      "async_": 3500,
      "enable_metadata_routing": 3501,
      "Imputer": 3502,
      "Bay": 3503,
      "concat": 3504,
      "needs_": 3505,
      "Node": 3506,
      "Fitted": 3507,
      "Bayes": 3508,
      "60": 3509,
      "PY": 3510,
      "_D": 3511,
      "_container": 3512,
      "ering": 3513,
      "within": 3514,
      "serial": 3515,
      "Convergence": 3516,
      "settings": 3517,
      "ICAgICAgICAgICAg": 3518,
      "AD": 3519,
      "IC": 3520,
      "_nodes": 3521,
      "_ser": 3522,
      "plex": 3523,
      "delay": 3524,
      "Notes": 3525,
      "Route": 3526,
      "Predict": 3527,
      "Server": 3528,
      "=-": 3529,
      "Sub": 3530,
      "rbf": 3531,
      "indent": 3532,
      "strap": 3533,
      "ertia": 3534,
      "route_": 3535,
      "variable": 3536,
      "infrequent": 3537,
      "Monkey": 3538,
      "sphx_glr_auto_examples": 3539,
      "BF": 3540,
      "Simple": 3541,
      "()),": 3542,
      "dependent": 3543,
      "crimin": 3544,
      "hooks": 3545,
      "corresponding": 3546,
      "MonkeyPatch": 3547,
      "Gram": 3548,
      "bad": 3549,
      "lay": 3550,
      "l2_": 3551,
      "ped_": 3552,
      "openapi_schema": 3553,
      "DecisionTreeClassifier": 3554,
      "Training": 3555,
      "inline_snapshot": 3556,
      "Do": 3557,
      "md": 3558,
      "mis": 3559,
      "interval": 3560,
      "dims": 3561,
      "Batch": 3562,
      "anch": 3563,
      "randomized": 3564,
      "stats": 3565,
      "bootstrap": 3566,
      "You": 3567,
      "finite": 3568,
      "tain": 3569,
      "sitive": 3570,
      "selected": 3571,
      "_kw": 3572,
      "_ctx": 3573,
      "zen": 3574,
      "rece": 3575,
      "lier": 3576,
      "density": 3577,
      "newaxis": 3578,
      "LinearSVC": 3579,
      "_2d": 3580,
      "extract": 3581,
      "representation": 3582,
      "blobs": 3583,
      "35": 3584,
      "adap": 3585,
      "routing_": 3586,
      "cript": 3587,
      "invo": 3588,
      "binned": 3589,
      "'\"": 3590,
      "gaussian": 3591,
      "pos": 3592,
      "routed_params": 3593,
      "_select": 3594,
      "relative": 3595,
      "ElasticNet": 3596,
      "lbfgs": 3597,
      "GET": 3598,
      "TE": 3599,
      "await": 3600,
      "ters": 3601,
      "rais": 3602,
      "copes": 3603,
      "input_tags": 3604,
      "visible": 3605,
      "original_": 3606,
      "take": 3607,
      "n_informative": 3608,
      "global": 3609,
      "_rank": 3610,
      "NaN": 3611,
      "klass": 3612,
      "\"<": 3613,
      "ave": 3614,
      "}:": 3615,
      "test_size": 3616,
      "respect": 3617,
      "data_home": 3618,
      "did": 3619,
      "iteral": 3620,
      "SVR": 3621,
      "docs_src": 3622,
      "behavior": 3623,
      "decorator": 3624,
      "automatically": 3625,
      "78": 3626,
      "ep_": 3627,
      "docstring": 3628,
      "SGDClassifier": 3629,
      "catch_warnings": 3630,
      "CurveDisplay": 3631,
      "cording": 3632,
      "counts": 3633,
      "ource": 3634,
      "reference": 3635,
      "_no_": 3636,
      "oauth": 3637,
      "ined": 3638,
      "wever": 3639,
      "control": 3640,
      "p_val": 3641,
      "packages": 3642,
      "Head": 3643,
      "p1": 3644,
      "ential": 3645,
      "ild_": 3646,
      "Clust": 3647,
      "_fraction": 3648,
      "~~~~": 3649,
      "execut": 3650,
      "L2": 3651,
      "NB": 3652,
      "were": 3653,
      "n_outputs": 3654,
      "plement": 3655,
      "proper": 3656,
      "figsize": 3657,
      "duplic": 3658,
      "collected": 3659,
      "cache_": 3660,
      "Ob": 3661,
      "mal": 3662,
      "clf1": 3663,
      "Output": 3664,
      "Run": 3665,
      "_config": 3666,
      "dt": 3667,
      "hid": 3668,
      "ends": 3669,
      "who": 3670,
      "folder": 3671,
      "wrapper": 3672,
      "RuntimeError": 3673,
      "_scope": 3674,
      "_sizes": 3675,
      "csc_": 3676,
      "normalize": 3677,
      "ConvergenceWarning": 3678,
      "_code": 3679,
      "}.": 3680,
      "secon": 3681,
      "old_": 3682,
      "ement": 3683,
      "floating": 3684,
      "subsample": 3685,
      "dependant": 3686,
      "icro": 3687,
      "ERR": 3688,
      "removed": 3689,
      "visual": 3690,
      "absolute_": 3691,
      "Namespace": 3692,
      "/#": 3693,
      "Sample": 3694,
      "lab": 3695,
      "test_openapi_schema": 3696,
      "]).": 3697,
      "bp": 3698,
      "tools": 3699,
      "\"][\"": 3700,
      "early": 3701,
      "cookies": 3702,
      "store_": 3703,
      "MiniBatch": 3704,
      "_compat": 3705,
      "ExitCode": 3706,
      "below": 3707,
      "counter": 3708,
      "vidual": 3709,
      "tmpdir": 3710,
      "shrinkage": 3711,
      "ColumnTransformer": 3712,
      "needs_py310": 3713,
      "gmm": 3714,
      "move_": 3715,
      "variances": 3716,
      "HTML": 3717,
      "reports": 3718,
      "================================================": 3719,
      "subplots": 3720,
      "3f": 3721,
      "_reg": 3722,
      "ru": 3723,
      "conver": 3724,
      "pectral": 3725,
      "indexing": 3726,
      "_skip": 3727,
      "scheme": 3728,
      "Generate": 3729,
      "param_grid": 3730,
      "90": 3731,
      "_mean": 3732,
      "_safe_": 3733,
      "prepar": 3734,
      "transform_": 3735,
      "cial": 3736,
      "custom_": 3737,
      "C_": 3738,
      "`)": 3739,
      "la": 3740,
      "orization": 3741,
      "decode": 3742,
      "util": 3743,
      "rozen": 3744,
      "keyword": 3745,
      "Stratified": 3746,
      "Future": 3747,
      "older": 3748,
      "ized_": 3749,
      "factory": 3750,
      "response_class": 3751,
      "mutual": 3752,
      "as_frame": 3753,
      "nr_class": 3754,
      ")).": 3755,
      "eded": 3756,
      "src": 3757,
      "tom": 3758,
      "x2": 3759,
      "ax_": 3760,
      "Expect": 3761,
      "404": 3762,
      "Learning": 3763,
      "built": 3764,
      "underlying": 3765,
      "leaves": 3766,
      "Ig": 3767,
      "KNeighbors": 3768,
      "`/": 3769,
      "cmap": 3770,
      "pathlib": 3771,
      "splitter": 3772,
      "FutureWarning": 3773,
      "dest": 3774,
      "or_": 3775,
      "ded_": 3776,
      "unknown": 3777,
      "set_title": 3778,
      "vised": 3779,
      "matches": 3780,
      "_report": 3781,
      "legac": 3782,
      "greater": 3783,
      "Ignor": 3784,
      "-=": 3785,
      "_arg": 3786,
      "ues": 3787,
      "inomial": 3788,
      "stable": 3789,
      "ingle": 3790,
      "obtain": 3791,
      "....": 3792,
      "AB": 3793,
      "baz": 3794,
      "_strength": 3795,
      "centro": 3796,
      "centers_": 3797,
      "resolution": 3798,
      "Reg": 3799,
      "calling": 3800,
      "CSC": 3801,
      "p_val_alias": 3802,
      "_labels": 3803,
      "mess": 3804,
      "qa": 3805,
      "y1": 3806,
      "named": 3807,
      "iterable": 3808,
      "patches": 3809,
      "Mock": 3810,
      "dependency_": 3811,
      "String": 3812,
      "Attributes": 3813,
      ")])": 3814,
      "97": 3815,
      "ratio": 3816,
      "decre": 3817,
      "qual": 3818,
      "noqa": 3819,
      "items_": 3820,
      "_mem": 3821,
      "tak": 3822,
      "SVD": 3823,
      "charact": 3824,
      "explain": 3825,
      "curve_kwargs": 3826,
      "bb": 3827,
      "yiel": 3828,
      "force_": 3829,
      "one_": 3830,
      "quot": 3831,
      "skip_": 3832,
      "[:-": 3833,
      "brut": 3834,
      "drop_": 3835,
      "arpack": 3836,
      "ift": 3837,
      "y_prob": 3838,
      "TestCase": 3839,
      "containing": 3840,
      "wrong": 3841,
      "Arg": 3842,
      "owner": 3843,
      "L1": 3844,
      "Other": 3845,
      "_fit": 3846,
      "d2": 3847,
      "post_": 3848,
      "logistic": 3849,
      "APIRouter": 3850,
      "make_blobs": 3851,
      "recur": 3852,
      "edError": 3853,
      "int8": 3854,
      "\"]:": 3855,
      "namespace_": 3856,
      "target_names": 3857,
      "combinations": 3858,
      "early_stopping": 3859,
      "confusion_matrix": 3860,
      "References": 3861,
      "26": 3862,
      "Custom": 3863,
      "Literal": 3864,
      "US": 3865,
      "frequent": 3866,
      "weed": 3867,
      "makeconftest": 3868,
      "BaseException": 3869,
      "dential": 3870,
      "define": 3871,
      "min_samples_leaf": 3872,
      "_range": 3873,
      "mer": 3874,
      "esky": 3875,
      "asic": 3876,
      "precompute": 3877,
      "estimator_orig": 3878,
      "estimates": 3879,
      "average_precision": 3880,
      "300": 3881,
      "rf": 3882,
      "dataframe": 3883,
      "contents": 3884,
      "impurity": 3885,
      "'},": 3886,
      "Up": 3887,
      "_np": 3888,
      "_content": 3889,
      "`:": 3890,
      "\"}]": 3891,
      "_METRICS": 3892,
      "sync": 3893,
      "monotonic_cst": 3894,
      "addoption": 3895,
      "ERROR": 3896,
      "hot": 3897,
      "tun": 3898,
      "sep": 3899,
      "force": 3900,
      "There": 3901,
      "deviance": 3902,
      "propag": 3903,
      "seconds": 3904,
      "/,": 3905,
      "UT": 3906,
      "clean": 3907,
      "fall": 3908,
      "tb": 3909,
      "entic": 3910,
      "look": 3911,
      "Implement": 3912,
      "2d": 3913,
      "Bl": 3914,
      "PASS": 3915,
      "Us": 3916,
      "_from_": 3917,
      "model_name": 3918,
      "label_": 3919,
      "transformation": 3920,
      "ynomial": 3921,
      "FO": 3922,
      "txt": 3923,
      "requested": 3924,
      "Pydantic": 3925,
      "1d": 3926,
      "DBS": 3927,
      "Var": 3928,
      "_distances": 3929,
      "verse": 3930,
      "X_csr": 3931,
      "allows": 3932,
      "considered": 3933,
      "FIX": 3934,
      "_T": 3935,
      "_train": 3936,
      "micro": 3937,
      "ines": 3938,
      "enc": 3939,
      "rich": 3940,
      "registr": 3941,
      "\"}),": 3942,
      "NumPy": 3943,
      "sequence": 3944,
      "ning": 3945,
      "dients": 3946,
      "coo": 3947,
      "instances": 3948,
      "variables": 3949,
      "gradients": 3950,
      "Ensure": 3951,
      "explicitly": 3952,
      "ush": 3953,
      "upload": 3954,
      "void": 3955,
      "stand": 3956,
      "outer": 3957,
      "Repr": 3958,
      "CAN": 3959,
      "compatible": 3960,
      "PRE": 3961,
      "Scope": 3962,
      "Support": 3963,
      "hero": 3964,
      "cost": 3965,
      "s_path": 3966,
      "markers": 3967,
      "useful": 3968,
      "created": 3969,
      "internal": 3970,
      "slice": 3971,
      "DBSCAN": 3972,
      ":-": 3973,
      "page": 3974,
      "correl": 3975,
      "backend": 3976,
      "numerical": 3977,
      "zero_division": 3978,
      "77": 3979,
      "As": 3980,
      "Bear": 3981,
      "Man": 3982,
      "_num": 3983,
      "_array_api": 3984,
      "nu": 3985,
      "aly": 3986,
      "\"\")": 3987,
      "n_non": 3988,
      "macro": 3989,
      "Form": 3990,
      "gradient_": 3991,
      "Iterable": 3992,
      "Bearer": 3993,
      "/=": 3994,
      "_dir": 3995,
      "ges": 3996,
      "smo": 3997,
      "win": 3998,
      "lete": 3999,
      "discret": 4000,
      "individual": 4001,
      "depends": 4002,
      "set_output": 4003,
      "verbosity": 4004,
      "provide": 4005,
      "'''": 4006,
      "ticks": 4007,
      "Header": 4008,
      "Dist": 4009,
      "IP": 4010,
      "Lars": 4011,
      "Mult": 4012,
      "mp": 4013,
      "pan": 4014,
      "xml": 4015,
      "rec": 4016,
      "ampling": 4017,
      "timedelta": 4018,
      "_exception": 4019,
      "positive_": 4020,
      "Level": 4021,
      "system": 4022,
      "ibility": 4023,
      "assume_": 4024,
      "permutation": 4025,
      "FAIL": 4026,
      "Mat": 4027,
      "Match": 4028,
      "S_": 4029,
      "adv": 4030,
      "_strict": 4031,
      "============": 4032,
      "pdb": 4033,
      "build_": 4034,
      "stract": 4035,
      "']": 4036,
      "Near": 4037,
      "_kwargs": 4038,
      "_not_": 4039,
      "sto": 4040,
      "rier": 4041,
      "needed": 4042,
      "random_sample": 4043,
      "contig": 4044,
      "file_path": 4045,
      "eigen_solver": 4046,
      "distributions": 4047,
      "dentials": 4048,
      "2D": 4049,
      "aries": 4050,
      "necess": 4051,
      "input_features": 4052,
      "evaluation": 4053,
      "corresponds": 4054,
      "simplefilter": 4055,
      "Nearest": 4056,
      "AG": 4057,
      "Time": 4058,
      "ress": 4059,
      "coordin": 4060,
      "beg": 4061,
      "Invalid": 4062,
      "norms": 4063,
      "_to_select": 4064,
      "needs": 4065,
      "converted": 4066,
      "applied": 4067,
      "candidates": 4068,
      "www": 4069,
      "move_to": 4070,
      "Hot": 4071,
      "NE": 4072,
      "RBF": 4073,
      "_validate_": 4074,
      "forest": 4075,
      "fidf": 4076,
      "matching": 4077,
      "dist_": 4078,
      "ives": 4079,
      "leaf_nodes": 4080,
      "ovr": 4081,
      "^^^^^^^^": 4082,
      "Expected": 4083,
      ")\",": 4084,
      "Ag": 4085,
      "Li": 4086,
      "PR": 4087,
      "data_id": 4088,
      "general": 4089,
      "allowed": 4090,
      "bro": 4091,
      "along": 4092,
      "faces": 4093,
      "subclass": 4094,
      "higher": 4095,
      "Generator": 4096,
      "legend_": 4097,
      "FE": 4098,
      "_param": 4099,
      "cu": 4100,
      "uring": 4101,
      "estimator_name": 4102,
      "descent": 4103,
      "_scaled": 4104,
      "OneHot": 4105,
      "ensure_all": 4106,
      "documentation": 4107,
      "concaten": 4108,
      "36": 4109,
      "_py310": 4110,
      "ians": 4111,
      "upper": 4112,
      "scalar": 4113,
      "Dependen": 4114,
      "repeated": 4115,
      "ImportError": 4116,
      "OneHotEncoder": 4117,
      "OAuth": 4118,
      "_prior": 4119,
      "chi": 4120,
      "_spec": 4121,
      "mail": 4122,
      "piri": 4123,
      "metafunc": 4124,
      "build": 4125,
      "longrepr": 4126,
      "chance_level": 4127,
      "brute": 4128,
      "us_": 4129,
      "\"\"\"\\": 4130,
      "suit": 4131,
      "_std": 4132,
      "spection": 4133,
      "children": 4134,
      "improv": 4135,
      "nearest": 4136,
      "_args": 4137,
      "eled": 4138,
      "aster": 4139,
      "another": 4140,
      "\"}],": 4141,
      "Location": 4142,
      "FixtureRequest": 4143,
      "ensure_all_finite": 4144,
      ">\"": 4145,
      "OP": 4146,
      "SE": 4147,
      "gpr": 4148,
      "t0": 4149,
      "}{": 4150,
      "ried": 4151,
      "neigh": 4152,
      "fixes": 4153,
      "tack": 4154,
      "estimate": 4155,
      "ignore_warnings": 4156,
      "cpu": 4157,
      "88": 4158,
      "dual": 4159,
      "array_api_dispatch": 4160,
      "MP": 4161,
      "Wor": 4162,
      "_func": 4163,
      "ness": 4164,
      "rees": 4165,
      "edge": 4166,
      "Index": 4167,
      "\"][": 4168,
      "validated": 4169,
      "contiguous": 4170,
      "Bu": 4171,
      "X1": 4172,
      "\\(": 4173,
      "_k": 4174,
      "_nan": 4175,
      "fraction": 4176,
      "uber": 4177,
      "ately": 4178,
      "anc": 4179,
      "itself": 4180,
      "ski": 4181,
      "_log_proba": 4182,
      "ROC": 4183,
      "affinity": 4184,
      "plexity": 4185,
      "gu": 4186,
      "knot": 4187,
      "mt": 4188,
      "pool": 4189,
      "routes": 4190,
      "_tag": 4191,
      "curves": 4192,
      "Const": 4193,
      "Count": 4194,
      "401": 4195,
      "Mean": 4196,
      "preprocessor": 4197,
      "callee": 4198,
      "trans_": 4199,
      "70": 4200,
      "_fixture": 4201,
      "_param_": 4202,
      "oom": 4203,
      "lic": 4204,
      "ExceptionInfo": 4205,
      "links": 4206,
      "sparse_output": 4207,
      "product": 4208,
      "l2_reg": 4209,
      ".{": 4210,
      "_on": 4211,
      "atform": 4212,
      "platform": 4213,
      "covar": 4214,
      "test_2": 4215,
      "icular": 4216,
      "unique_id": 4217,
      "process_": 4218,
      "outlier": 4219,
      "accuracy_score": 4220,
      "efficient": 4221,
      "Ab": 4222,
      "[],": 4223,
      "due": 4224,
      "your": 4225,
      "impl": 4226,
      "images": 4227,
      "truth": 4228,
      "param_name": 4229,
      "vice": 4230,
      "pact": 4231,
      "capt": 4232,
      "empty_": 4233,
      "spam": 4234,
      "observ": 4235,
      "_task_": 4236,
      "pirical": 4237,
      "Each": 4238,
      "Xy": 4239,
      "yy": 4240,
      "edu": 4241,
      "ign_": 4242,
      "minim": 4243,
      "predict_log_proba": 4244,
      "Deprecation": 4245,
      "particular": 4246,
      "gives": 4247,
      "delete": 4248,
      "_scalar": 4249,
      "medi": 4250,
      "constructor_name": 4251,
      "absolute_error": 4252,
      "21": 4253,
      "NM": 4254,
      "Skip": 4255,
      "som": 4256,
      "regex": 4257,
      "loading": 4258,
      "complete": 4259,
      "metric_params": 4260,
      "teardown_": 4261,
      "criminant": 4262,
      "ns": 4263,
      "secret": 4264,
      "_schem": 4265,
      "_sign": 4266,
      "what": 4267,
      "shown": 4268,
      "ClassifierCV": 4269,
      "HTTPException": 4270,
      "exc_info": 4271,
      "smaller": 4272,
      "register": 4273,
      "calibration": 4274,
      "Here": 4275,
      "fli": 4276,
      "yet": 4277,
      "inplace": 4278,
      "progress": 4279,
      "axs": 4280,
      "Example": 4281,
      "displa": 4282,
      "_recall": 4283,
      "quantiles": 4284,
      "signature": 4285,
      "riedman": 4286,
      "display_": 4287,
      "Metric": 4288,
      "script": 4289,
      "uple": 4290,
      "edia": 4291,
      "_sort": 4292,
      "tout": 4293,
      "linest": 4294,
      "idd": 4295,
      "sgroup": 4296,
      "unicode": 4297,
      "avg": 4298,
      "New": 4299,
      "finally": 4300,
      "good": 4301,
      "Ignored": 4302,
      "inj": 4303,
      "extend": 4304,
      "_include": 4305,
      "max_leaf_nodes": 4306,
      "according": 4307,
      "Series": 4308,
      "`,)": 4309,
      "_single": 4310,
      "exc_": 4311,
      "atures": 4312,
      "assert_outcomes": 4313,
      "repr_": 4314,
      "sensitive": 4315,
      "Diction": 4316,
      "DecisionTreeRegressor": 4317,
      "DeprecationWarning": 4318,
      "iddle": 4319,
      "96": 4320,
      "D_": 4321,
      "Spec": 4322,
      "WAR": 4323,
      "tour": 4324,
      "X_xp": 4325,
      "item_": 4326,
      "warn_": 4327,
      "grid_resolution": 4328,
      "mutual_info": 4329,
      "Stack": 4330,
      "_key": 4331,
      "km": 4332,
      "desc": 4333,
      "passing": 4334,
      "NotImplement": 4335,
      "generate_unique_id": 4336,
      "Jo": 4337,
      "_with": 4338,
      "many": 4339,
      "ym": 4340,
      "arr": 4341,
      "unless": 4342,
      "classmethod": 4343,
      "ices": 4344,
      "=\"/": 4345,
      ").\"\"\"": 4346,
      "p_alias": 4347,
      "newsgroup": 4348,
      "liblinear": 4349,
      "placi": 4350,
      "normalized": 4351,
      "addini": 4352,
      "ORS": 4353,
      "boosting": 4354,
      "_none": 4355,
      "svd_solver": 4356,
      "Calibr": 4357,
      "glm": 4358,
      "robust": 4359,
      "labeled": 4360,
      ")`": 4361,
      ")[:,": 4362,
      "IR": 4363,
      "_warning": 4364,
      "bunch": 4365,
      "inx": 4366,
      "isnan": 4367,
      "import_module": 4368,
      "_bu": 4369,
      "Result": 4370,
      "header_": 4371,
      "operation_id": 4372,
      "grid_search": 4373,
      "_squared_error": 4374,
      "body_model_name": 4375,
      "━━━━━━━━": 4376,
      "_defaults": 4377,
      "placian": 4378,
      "34": 4379,
      "_not": 4380,
      "ler": 4381,
      "x0": 4382,
      "box": 4383,
      "caplo": 4384,
      "pluginmanager": 4385,
      "linkage": 4386,
      "ovo": 4387,
      "template_": 4388,
      "caplog": 4389,
      "_H": 4390,
      "cum": 4391,
      "font": 4392,
      "lar": 4393,
      "analy": 4394,
      "arg1": 4395,
      "whit": 4396,
      "clusters_": 4397,
      "_testing": 4398,
      "Union": 4399,
      "Process": 4400,
      "Determin": 4401,
      "n_nonzero_": 4402,
      "Dictionary": 4403,
      "28": 4404,
      "enet": 4405,
      "roun": 4406,
      "quare": 4407,
      "func_": 4408,
      "variance_": 4409,
      "problems": 4410,
      "RaisesExc": 4411,
      "CH": 4412,
      "DS": 4413,
      "ohe": 4414,
      "spl": 4415,
      "v_": 4416,
      "entries": 4417,
      "iter_": 4418,
      "algorithms": 4419,
      "=\"\"\"": 4420,
      "FF": 4421,
      "Scor": 4422,
      "ts": 4423,
      "arff": 4424,
      "reprodu": 4425,
      "ply": 4426,
      "union": 4427,
      "all__": 4428,
      "__all__": 4429,
      "`.\"\"\"": 4430,
      "written": 4431,
      "insert": 4432,
      "MetadataRouter": 4433,
      "PASSED": 4434,
      "OAuth2": 4435,
      "Task": 4436,
      "cated": 4437,
      "vot": 4438,
      "around": 4439,
      "dedent": 4440,
      "amily": 4441,
      "ification": 4442,
      "singular": 4443,
      "runtest_": 4444,
      "supports": 4445,
      "hessians": 4446,
      "consider": 4447,
      "400": 4448,
      "Deta": 4449,
      "ION": 4450,
      "sur": 4451,
      "ific": 4452,
      "(\"/\",": 4453,
      "autouse": 4454,
      "captured": 4455,
      "Poisson": 4456,
      "begin": 4457,
      ")`.": 4458,
      "OK": 4459,
      "ogram": 4460,
      "inertia": 4461,
      "dir_": 4462,
      "__repr": 4463,
      "X_df": 4464,
      "{\"$": 4465,
      "train_size": 4466,
      "textwrap": 4467,
      "disc": 4468,
      "partition": 4469,
      "Iterator": 4470,
      "optimization": 4471,
      "disabled": 4472,
      "Plugin": 4473,
      "RandomForestClassifier": 4474,
      "improvement": 4475,
      "__repr__": 4476,
      ".\\": 4477,
      "Please": 4478,
      "Schema": 4479,
      "_of": 4480,
      "ball": 4481,
      "eq": 4482,
      "ions": 4483,
      "neither": 4484,
      "means_": 4485,
      "no_change": 4486,
      "final_": 4487,
      "dimensions": 4488,
      "cholesky": 4489,
      "knots": 4490,
      "_N": 4491,
      "_format": 4492,
      "ree_": 4493,
      "ples": 4494,
      "rot": 4495,
      "contour": 4496,
      "y_type": 4497,
      "test_get_": 4498,
      "fit_task_": 4499,
      "_tim": 4500,
      "Authorization": 4501,
      "copy_X": 4502,
      "However": 4503,
      "NotImplementedError": 4504,
      "Event": 4505,
      "dy": 4506,
      "}),": 4507,
      "()[\"": 4508,
      "board": 4509,
      "get_xp": 4510,
      "libsvm": 4511,
      "affect": 4512,
      "Load": 4513,
      "proxy": 4514,
      "_test_score": 4515,
      "Features": 4516,
      "construction": 4517,
      "CSC_CONTAINERS": 4518,
      "messages": 4519,
      "Async": 4520,
      "_convert": 4521,
      "arbit": 4522,
      "ended": 4523,
      "amo": 4524,
      "Security": 4525,
      "Weight": 4526,
      "crash": 4527,
      "_unset": 4528,
      "'``": 4529,
      "38": 4530,
      "LASS": 4531,
      "[(\"": 4532,
      "den_": 4533,
      "ulation": 4534,
      "([(\"": 4535,
      "fails": 4536,
      "runner": 4537,
      "Items": 4538,
      "Trace": 4539,
      "n_iter_no_change": 4540,
      "choice": 4541,
      "HistGradientBoostingRegressor": 4542,
      "benchmark": 4543,
      "frozen": 4544,
      "faster": 4545,
      "pag": 4546,
      "}\\": 4547,
      "std_": 4548,
      "cto": 4549,
      "covariances": 4550,
      "X_binned": 4551,
      "prob_": 4552,
      "gbm": 4553,
      "sphx_glr_auto_examples_": 4554,
      "rupt": 4555,
      "kze": 4556,
      "tpr": 4557,
      "atic": 4558,
      "rele": 4559,
      "functo": 4560,
      "clip": 4561,
      "login": 4562,
      "router_": 4563,
      "difference": 4564,
      "implemented": 4565,
      "kzeug": 4566,
      "LI": 4567,
      "ware": 4568,
      "timeout": 4569,
      "NotFitted": 4570,
      "terms": 4571,
      "initialization": 4572,
      "consider_": 4573,
      "amount": 4574,
      "functools": 4575,
      "'\\": 4576,
      "sel": 4577,
      "transl": 4578,
      "col_": 4579,
      "file_": 4580,
      "nan_": 4581,
      "flags": 4582,
      "specify": 4583,
      "optimal": 4584,
      "Defined": 4585,
      "evaluate": 4586,
      "nested": 4587,
      "Maximum": 4588,
      "necessary": 4589,
      "NotFittedError": 4590,
      "2f": 4591,
      "Bar": 4592,
      "Fir": 4593,
      "bias": 4594,
      "kmeans": 4595,
      "ertout": 4596,
      "assertout": 4597,
      "parametrize_": 4598,
      "branch": 4599,
      "from_predictions": 4600,
      "length_scale": 4601,
      "polation": 4602,
      "continuous": 4603,
      "other_": 4604,
      "Clustering": 4605,
      "Usage": 4606,
      "Detail": 4607,
      "assertoutcome": 4608,
      "bi": 4609,
      "sampling": 4610,
      "wra": 4611,
      "yes": 4612,
      "selector": 4613,
      "ren_": 4614,
      "requency": 4615,
      "_inst": 4616,
      "Part": 4617,
      "computing": 4618,
      "children_": 4619,
      "highlight": 4620,
      "enough": 4621,
      "environment": 4622,
      "additional": 4623,
      "neighbors_graph": 4624,
      "toml": 4625,
      "\">": 4626,
      "37": 4627,
      "44": 4628,
      "65": 4629,
      "POS": 4630,
      "sine": 4631,
      "ulary": 4632,
      "moid": 4633,
      "dataclasses": 4634,
      "num_": 4635,
      "grad_": 4636,
      "typed": 4637,
      "_fn": 4638,
      "special": 4639,
      "covariance_": 4640,
      "dbs": 4641,
      "fetch_openml": 4642,
      "Hand": 4643,
      "Tok": 4644,
      "TER": 4645,
      "]},": 4646,
      "_diff": 4647,
      "mapp": 4648,
      "much": 4649,
      "deep": 4650,
      "emp_": 4651,
      "feature_idx": 4652,
      "These": 4653,
      "Consum": 4654,
      "render": 4655,
      "precision_recall": 4656,
      "annotation_": 4657,
      "larger": 4658,
      "multilabel_": 4659,
      "concatenate": 4660,
      "Bunch": 4661,
      "][\"": 4662,
      "click": 4663,
      "get_params": 4664,
      "predictor": 4665,
      "fit_predict": 4666,
      "_process": 4667,
      "verbose_": 4668,
      "working": 4669,
      "mypy": 4670,
      "_unknown": 4671,
      "NMF": 4672,
      "'`": 4673,
      ")``": 4674,
      "Found": 4675,
      "Got": 4676,
      "Oper": 4677,
      "_V": 4678,
      "aded": 4679,
      "ner_": 4680,
      "ind_": 4681,
      "plain": 4682,
      "ques": 4683,
      "move": 4684,
      "perplexity": 4685,
      "dual_": 4686,
      "And": 4687,
      "subprocess": 4688,
      "Decor": 4689,
      "wrapped_": 4690,
      "read_items": 4691,
      "dummy": 4692,
      "invert": 4693,
      "getini": 4694,
      "weighted_": 4695,
      "pow": 4696,
      "make_scorer": 4697,
      "Estim": 4698,
      "john": 4699,
      "overrides": 4700,
      "ALL": 4701,
      "euclidean_distances": 4702,
      "roc_auc_score": 4703,
      "Nor": 4704,
      "expres": 4705,
      "izing": 4706,
      "poisson": 4707,
      "error_score": 4708,
      "Dec": 4709,
      "module_name": 4710,
      "covariance_type": 4711,
      "pytest_runtest_": 4712,
      "Boost": 4713,
      "cross_val": 4714,
      "fill_value": 4715,
      "modified": 4716,
      "csc_container": 4717,
      "cleanup": 4718,
      "Traceback": 4719,
      "sil": 4720,
      "}'": 4721,
      "test_b": 4722,
      "missing_value": 4723,
      "Compar": 4724,
      "include_router": 4725,
      "accard": 4726,
      "compatibility": 4727,
      "_and_validation_alias": 4728,
      "Binar": 4729,
      "Bayesian": 4730,
      "Like": 4731,
      "Token": 4732,
      "*/": 4733,
      "fd": 4734,
      "gonal": 4735,
      "{},": 4736,
      "sever": 4737,
      "_sp": 4738,
      "intro": 4739,
      "test_optional_": 4740,
      "usage": 4741,
      "ird": 4742,
      "makeini": 4743,
      "metadata_": 4744,
      "thogonal": 4745,
      "current_user": 4746,
      "raising": 4747,
      "*\")": 4748,
      "AU": 4749,
      "MA": 4750,
      "Termin": 4751,
      "_result": 4752,
      "hstack": 4753,
      "jax": 4754,
      "jinj": 4755,
      "pers": 4756,
      "retries": 4757,
      "items__": 4758,
      "train_score": 4759,
      "Tests": 4760,
      "count_": 4761,
      "finish": 4762,
      "estimated": 4763,
      "linestyle": 4764,
      "n_nonzero_coefs": 4765,
      "Terminal": 4766,
      "fp": 4767,
      "ier": 4768,
      "ingRegressor": 4769,
      "(\"\\": 4770,
      "ics": 4771,
      "checked": 4772,
      "error_": 4773,
      "indirect": 4774,
      "identity": 4775,
      "cluster_centers_": 4776,
      "layer": 4777,
      "weedie": 4778,
      "World": 4779,
      "email": 4780,
      "gap": 4781,
      "three": 4782,
      "store": 4783,
      "[\"/": 4784,
      "****": 4785,
      "Uni": 4786,
      "something": 4787,
      "svm_": 4788,
      "supervised": 4789,
      "ModuleType": 4790,
      "TEST_": 4791,
      "_template_": 4792,
      "Vs": 4793,
      "_dense": 4794,
      "tw_": 4795,
      "inspection": 4796,
      "portion": 4797,
      "projection": 4798,
      "X_test_": 4799,
      "argname": 4800,
      "_mult": 4801,
      "plots": 4802,
      "print_": 4803,
      "therefore": 4804,
      "vocabulary": 4805,
      "WARN": 4806,
      "Partial": 4807,
      "dbscan": 4808,
      "tw_mock": 4809,
      "ties": 4810,
      "xi": 4811,
      "vals": 4812,
      "appen": 4813,
      "_ind": 4814,
      "fft": 4815,
      "credentials": 4816,
      "stored": 4817,
      "template": 4818,
      "registry": 4819,
      "Decimal": 4820,
      "FOR": 4821,
      "_i": 4822,
      "band": 4823,
      "ged": 4824,
      "wd": 4825,
      "resid": 4826,
      "apes": 4827,
      "sus": 4828,
      "``'": 4829,
      "Web": 4830,
      "vectorizer": 4831,
      "outlier_": 4832,
      "MLP": 4833,
      "lette": 4834,
      "field_info": 4835,
      "_threshold": 4836,
      "uri": 4837,
      "chars": 4838,
      "entro": 4839,
      "extension": 4840,
      "_metric": 4841,
      "custom_values": 4842,
      "Radius": 4843,
      "ensure_2d": 4844,
      "hidden_": 4845,
      "Matri": 4846,
      "/).": 4847,
      "27": 4848,
      ":])": 4849,
      "Ele": 4850,
      "Some": 4851,
      "jar": 4852,
      "pub": 4853,
      "rb": 4854,
      "vstack": 4855,
      "radi": 4856,
      "img": 4857,
      "suf": 4858,
      "list_": 4859,
      "speed": 4860,
      "ather": 4861,
      "_tests": 4862,
      "match_line": 4863,
      "Configuration": 4864,
      "OSError": 4865,
      "equivalence": 4866,
      "coefficient": 4867,
      "sigma": 4868,
      "takes": 4869,
      "explained_": 4870,
      "fallback": 4871,
      ":\",": 4872,
      "CK": 4873,
      "Over": 4874,
      "RFE": 4875,
      "Spectral": 4876,
      "dask": 4877,
      "her": 4878,
      "hing": 4879,
      "pet": 4880,
      "saf": 4881,
      "feat": 4882,
      "provid": 4883,
      "_in_schema": 4884,
      "ax1": 4885,
      "versions": 4886,
      "return_distance": 4887,
      "Mixture": 4888,
      "include_in_schema": 4889,
      "OneVs": 4890,
      "polars": 4891,
      "n_samples_X": 4892,
      "ontend": 4893,
      "TIONS": 4894,
      "mediate": 4895,
      "whiten": 4896,
      "Binarizer": 4897,
      "KB": 4898,
      "_encoder": 4899,
      "pull": 4900,
      "v1": 4901,
      "conda": 4902,
      "never": 4903,
      "__call": 4904,
      "_man": 4905,
      "file__": 4906,
      "access": 4907,
      "occur": 4908,
      "registered": 4909,
      "_squared": 4910,
      "PLS": 4911,
      "App": 4912,
      "Socket": 4913,
      "cross_val_score": 4914,
      "__call__": 4915,
      "/\":": 4916,
      ":\\": 4917,
      "Rest": 4918,
      "Ver": 4919,
      "_kernel": 4920,
      "lw": 4921,
      "ling": 4922,
      "lda": 4923,
      "itertools": 4924,
      "markup": 4925,
      "Inst": 4926,
      "\"/\":": 4927,
      "pairs": 4928,
      "categories_": 4929,
      "compile": 4930,
      "flip": 4931,
      "First": 4932,
      "Cs": 4933,
      "PAR": 4934,
      "TR": 4935,
      "junit": 4936,
      "rfe": 4937,
      "en_": 4938,
      "omer": 4939,
      "elastic": 4940,
      "ueprint": 4941,
      "dataclass": 4942,
      "account": 4943,
      "Parser": 4944,
      "fixture_": 4945,
      "ordered": 4946,
      "Unset": 4947,
      "Precision": 4948,
      "min_samples_split": 4949,
      "handle_unknown": 4950,
      "behaviour": 4951,
      "Factor": 4952,
      "Shuffle": 4953,
      "against": 4954,
      "l2_reg_strength": 4955,
      "WebSocket": 4956,
      "_test_": 4957,
      "elect": 4958,
      "independent": 4959,
      "child_": 4960,
      "_sq": 4961,
      "ifold": 4962,
      "pts": 4963,
      "_metri": 4964,
      "intermediate": 4965,
      "variant": 4966,
      "Leave": 4967,
      "_and_device": 4968,
      "optimizer": 4969,
      "get_namespace_and_device": 4970,
      "oauth2": 4971,
      "properly": 4972,
      "decrease": 4973,
      "Manager": 4974,
      "reproduci": 4975,
      "58": 4976,
      "UG": 4977,
      "friedman": 4978,
      "scopes": 4979,
      "test_required_": 4980,
      "setenv": 4981,
      "Parallel": 4982,
      "precision_": 4983,
      "normalizer": 4984,
      "authentic": 4985,
      "Optional": 4986,
      "register_": 4987,
      "richlet": 4988,
      "RadiusNeighbors": 4989,
      ")\")": 4990,
      "Can": 4991,
      "_base": 4992,
      "f2": 4993,
      "sive": 4994,
      "uint32": 4995,
      "_same_": 4996,
      "(\"\",": 4997,
      "idden": 4998,
      "X_np": 4999,
      "cally": 5000,
      "node_id": 5001,
      "_scaling": 5002,
      "_svd": 5003,
      "Content": 5004,
      "NearestNeighbors": 5005,
      "capturing": 5006,
      "5e": 5007,
      "Des": 5008,
      "asci": 5009,
      "Recall": 5010,
      "interface": 5011,
      "gene": 5012,
      "unique_": 5013,
      "Discriminant": 5014,
      "werkzeug": 5015,
      "locals": 5016,
      "dumps": 5017,
      "Embed": 5018,
      "standar": 5019,
      "advanced": 5020,
      "%.": 5021,
      "DA": 5022,
      "Hash": 5023,
      "Pol": 5024,
      "_only": 5025,
      "pal": 5026,
      "ane": 5027,
      "star": 5028,
      "abstract": 5029,
      "(\"*": 5030,
      "pectr": 5031,
      "_map": 5032,
      "faile": 5033,
      "ordering": 5034,
      "neg_": 5035,
      "Setting": 5036,
      "reduction": 5037,
      "_ispytest": 5038,
      "saga": 5039,
      "detect": 5040,
      "_memory": 5041,
      "several": 5042,
      "failed_": 5043,
      ":],": 5044,
      "Pr": 5045,
      "cing": 5046,
      "ick": 5047,
      "spa": 5048,
      "square": 5049,
      "it_": 5050,
      "untyped": 5051,
      "no_fn": 5052,
      "library": 5053,
      "256": 5054,
      "OneClass": 5055,
      "shows": 5056,
      "Outlier": 5057,
      "performed": 5058,
      "included": 5059,
      "flatten": 5060,
      "adapter": 5061,
      "legacy_": 5062,
      "characters": 5063,
      "bandwidth": 5064,
      "no_fnmatch_line": 5065,
      "Bagg": 5066,
      "Source": 5067,
      "k_": 5068,
      "rl": 5069,
      "secut": 5070,
      "X_trans_": 5071,
      "trained": 5072,
      "get_client": 5073,
      "angle": 5074,
      "Thresh": 5075,
      "makes": 5076,
      "tuples": 5077,
      "histogram": 5078,
      "Bo": 5079,
      "EX": 5080,
      "LR": 5081,
      "_B": 5082,
      "_transform": 5083,
      "_average": 5084,
      "clear": 5085,
      "lap": 5086,
      "amin": 5087,
      "pyc": 5088,
      "consecut": 5089,
      "array_device": 5090,
      "Device": 5091,
      "metaestimator": 5092,
      "overload": 5093,
      "_1d": 5094,
      "encoded_": 5095,
      "increasing": 5096,
      "observations": 5097,
      "Matrix": 5098,
      "48": 5099,
      "55": 5100,
      "OM": 5101,
      "finfo": 5102,
      "pm": 5103,
      "pot": 5104,
      "inci": 5105,
      "dic": 5106,
      "tocol": 5107,
      "expr": 5108,
      "appe": 5109,
      "X_array": 5110,
      "lower_": 5111,
      "documents": 5112,
      "infer": 5113,
      "blas": 5114,
      "evaluated": 5115,
      "cross_validate": 5116,
      "hyperparameter": 5117,
      "Multinomial": 5118,
      "WW": 5119,
      "draw": 5120,
      "ground": 5121,
      "past": 5122,
      "rans": 5123,
      "}/": 5124,
      "alloc": 5125,
      "__file__": 5126,
      "posed": 5127,
      "args_": 5128,
      "argmax": 5129,
      "_tear": 5130,
      "version__": 5131,
      "acces": 5132,
      "word_": 5133,
      "mlp": 5134,
      "loader": 5135,
      "left_": 5136,
      "rootdir": 5137,
      "connection": 5138,
      "invocation": 5139,
      "smooth": 5140,
      "UsageError": 5141,
      "Normal": 5142,
      "'{": 5143,
      "/*": 5144,
      "SU": 5145,
      "]\",": 5146,
      "lars": 5147,
      "uet": 5148,
      "stro": 5149,
      "named_": 5150,
      "str_": 5151,
      "ussion": 5152,
      "pend": 5153,
      "Values": 5154,
      "Indi": 5155,
      "Format": 5156,
      "boost": 5157,
      "boundary": 5158,
      "GaussianProcess": 5159,
      "cached_": 5160,
      "sphinx": 5161,
      "aaaa": 5162,
      "Failed": 5163,
      "HECK": 5164,
      "_num_samples": 5165,
      "arbitrary": 5166,
      "Wr": 5167,
      "jaccard": 5168,
      "ke_": 5169,
      "l_": 5170,
      "nm": 5171,
      "tight": 5172,
      "atively": 5173,
      "sed_": 5174,
      "tool": 5175,
      "empirical": 5176,
      "perfect": 5177,
      "desired": 5178,
      "has_": 5179,
      "callback_ctx": 5180,
      "dynam": 5181,
      "reproducible": 5182,
      "Embedding": 5183,
      "Ada": 5184,
      "_F": 5185,
      "fg": 5186,
      "grow": 5187,
      "```": 5188,
      "X_transformed": 5189,
      "dict_": 5190,
      "Init": 5191,
      "keywords": 5192,
      "depending": 5193,
      "Local": 5194,
      "cookie_": 5195,
      "eigenvalues": 5196,
      "dummy_": 5197,
      "cached": 5198,
      "_svm": 5199,
      "later": 5200,
      "_dtype_": 5201,
      "owski": 5202,
      "including": 5203,
      "_param_validation": 5204,
      "jinja_": 5205,
      "OneClassSVM": 5206,
      "AdaBoost": 5207,
      "CT": 5208,
      "_thresholds": 5209,
      "rm": 5210,
      "uint8": 5211,
      "alled": 5212,
      "exp_": 5213,
      "convent": 5214,
      "maj": 5215,
      "\")]": 5216,
      "perim": 5217,
      "hour": 5218,
      "_functions": 5219,
      "TIM": 5220,
      "From": 5221,
      "parallel_": 5222,
      "ordinal": 5223,
      "yield_": 5224,
      "ransac": 5225,
      "Used": 5226,
      "spar": 5227,
      "touch": 5228,
      "__array_namespace": 5229,
      "nois": 5230,
      "defaults": 5231,
      "Incre": 5232,
      "objective": 5233,
      "fixturedef": 5234,
      "levels": 5235,
      "_CLASS": 5236,
      "precisions_": 5237,
      "basename": 5238,
      "include_": 5239,
      "TransformerMixin": 5240,
      "add_argument": 5241,
      "ULL": 5242,
      "\"[": 5243,
      "46": 5244,
      "_clf": 5245,
      "_Base": 5246,
      "itted": 5247,
      "height": 5248,
      "vec": 5249,
      "deriv": 5250,
      "TestClass": 5251,
      "------------------------": 5252,
      "l1_ratios": 5253,
      "_extraction": 5254,
      "hyperparameters": 5255,
      "assigned": 5256,
      "StratifiedKFold": 5257,
      "obtained": 5258,
      "centroid": 5259,
      "ShuffleSplit": 5260,
      "Threshold": 5261,
      "'\",": 5262,
      ")},": 5263,
      "1D": 5264,
      "93": 5265,
      "Bad": 5266,
      "PAT": 5267,
      "WH": 5268,
      "\\)": 5269,
      "mes": 5270,
      "vs_": 5271,
      "n_alphas": 5272,
      "if_": 5273,
      "test_check_": 5274,
      "X_val": 5275,
      "deselect": 5276,
      "feature_extraction": 5277,
      "houet": 5278,
      "linear_loss": 5279,
      "_block": 5280,
      "activ": 5281,
      "support_": 5282,
      "redund": 5283,
      "Blueprint": 5284,
      "consecutive": 5285,
      "SK": 5286,
      "_max_": 5287,
      "_raise": 5288,
      "holder": 5289,
      "nbr": 5290,
      "ystro": 5291,
      "ince": 5292,
      "edges": 5293,
      "urther": 5294,
      "frontend": 5295,
      "shar": 5296,
      "proportion": 5297,
      "ica": 5298,
      "__version__": 5299,
      "urllib": 5300,
      "_CHECK": 5301,
      "search_": 5302,
      "_aliases": 5303,
      "Collector": 5304,
      "Halving": 5305,
      "approximation": 5306,
      "cupy": 5307,
      "John": 5308,
      "ystroem": 5309,
      "02": 5310,
      "Sci": 5311,
      "Vot": 5312,
      "]`": 5313,
      "give": 5314,
      "reed": 5315,
      "thus": 5316,
      "deleg": 5317,
      "deprecation": 5318,
      "ism": 5319,
      "n_active": 5320,
      "n_clusters_": 5321,
      "check_input": 5322,
      "n_features_to_select": 5323,
      "xpx": 5324,
      "skipif": 5325,
      "manifold": 5326,
      "helpers": 5327,
      "response_model_exclude_unset": 5328,
      "by_tag": 5329,
      "Object": 5330,
      "chi2": 5331,
      "'}": 5332,
      "_W": 5333,
      "gt": 5334,
      "zz": 5335,
      "_small": 5336,
      "mach": 5337,
      "frame_": 5338,
      "=====": 5339,
      "suc": 5340,
      "contamin": 5341,
      "prun": 5342,
      "uniques": 5343,
      "\"})],": 5344,
      "score_samples": 5345,
      "_scores_": 5346,
      "_bias": 5347,
      "_batch": 5348,
      "Link": 5349,
      "_subset": 5350,
      "pca_": 5351,
      "increase": 5352,
      "fspath": 5353,
      "kipedia": 5354,
      "XXX": 5355,
      "_template": 5356,
      "&&": 5357,
      "_en": 5358,
      "_norm": 5359,
      "rather": 5360,
      "definit": 5361,
      "extern": 5362,
      "fits": 5363,
      "numpy_namespace": 5364,
      "scale_": 5365,
      "operator": 5366,
      "128": 5367,
      "Covariance": 5368,
      "Intern": 5369,
      "csr_array": 5370,
      "cross_val_": 5371,
      "candidate": 5372,
      "whole": 5373,
      "_safe_indexing": 5374,
      "PREFIX": 5375,
      "analyz": 5376,
      "ificant": 5377,
      "radius_": 5378,
      "redundant": 5379,
      "cross_val_predict": 5380,
      "CI": 5381,
      "_a": 5382,
      "_pre": 5383,
      "gz": 5384,
      "hide": 5385,
      "hatt": 5386,
      "ably": 5387,
      "test_it": 5388,
      "strat": 5389,
      "mink": 5390,
      "indicat": 5391,
      "Stream": 5392,
      "iodic": 5393,
      "Discret": 5394,
      "beta_loss": 5395,
      "chunks": 5396,
      "chosen": 5397,
      "resource": 5398,
      "hattan": 5399,
      "EP": 5400,
      "RAN": 5401,
      "_length": 5402,
      "happen": 5403,
      "pure": 5404,
      "tp": 5405,
      "twi": 5406,
      "altern": 5407,
      "rac": 5408,
      "pls": 5409,
      "verify": 5410,
      "keep_": 5411,
      "([-": 5412,
      "fake_": 5413,
      "requestBody": 5414,
      "coef0": 5415,
      "ClassifierMixin": 5416,
      "multi_class": 5417,
      "filters": 5418,
      "[[]": 5419,
      "Body_": 5420,
      "LabelBinarizer": 5421,
      "endswith": 5422,
      "average_precision_score": 5423,
      "process_routing": 5424,
      "_convert_container": 5425,
      "=%": 5426,
      "Bound": 5427,
      "CR": 5428,
      "X_scaled": 5429,
      "_coef": 5430,
      "_prefix": 5431,
      "dget": 5432,
      "sof": 5433,
      "rescal": 5434,
      "n_output": 5435,
      "imported": 5436,
      "001": 5437,
      "sent": 5438,
      "GaussianMixture": 5439,
      "likelihood_": 5440,
      "sections": 5441,
      "half": 5442,
      "relev": 5443,
      ",))": 5444,
      "47": 5445,
      "Tweedie": 5446,
      "_X": 5447,
      "_lines": 5448,
      "cer": 5449,
      "v2": 5450,
      "loop": 5451,
      "test_bar": 5452,
      "key_": 5453,
      "argnames": 5454,
      "collector": 5455,
      "upper_": 5456,
      "variate": 5457,
      "mental": 5458,
      "_exc": 5459,
      "mlight": 5460,
      "ESS": 5461,
      "Undefined": 5462,
      "ARS": 5463,
      "array_api_strict": 5464,
      "DiscriminantAnalysis": 5465,
      "convention": 5466,
      "08": 5467,
      "Basic": 5468,
      "Text": 5469,
      "lt": 5470,
      "pin": 5471,
      "stash": 5472,
      "isotonic": 5473,
      "made": 5474,
      "bins_": 5475,
      "is_categorical": 5476,
      "director": 5477,
      "partial_dependence": 5478,
      "KeyError": 5479,
      "TYPE_CHECK": 5480,
      "_DTYPE": 5481,
      "SimpleImputer": 5482,
      "Boundary": 5483,
      "TYPE_CHECKING": 5484,
      "Fin": 5485,
      "[]]": 5486,
      "[...,": 5487,
      "`(": 5488,
      "hom": 5489,
      "pd_": 5490,
      "pdf": 5491,
      "imilar": 5492,
      "dows": 5493,
      "check_sample_weight": 5494,
      "request_": 5495,
      "sub_": 5496,
      "([[-": 5497,
      "Collect": 5498,
      "method_name": 5499,
      "MultiTask": 5500,
      "assumed": 5501,
      "JSONResponse": 5502,
      "certain": 5503,
      "ICAgICAgICAgICAgICAgICAgICAgICAg": 5504,
      "Otherwise": 5505,
      "incipal": 5506,
      "Fail": 5507,
      "Using": 5508,
      "middle": 5509,
      "eni": 5510,
      "test_scores": 5511,
      "()`": 5512,
      "()):": 5513,
      "atus": 5514,
      "sample_": 5515,
      "get_tags": 5516,
      "gen_": 5517,
      "proxies": 5518,
      "istics": 5519,
      "include_bias": 5520,
      "setup_": 5521,
      "inside": 5522,
      "Prepar": 5523,
      "identical": 5524,
      "lightgbm": 5525,
      "sigmoid": 5526,
      "WARNING": 5527,
      "NULL": 5528,
      "Trees": 5529,
      "Xt_": 5530,
      "_predict": 5531,
      "_RE": 5532,
      "_curve": 5533,
      "ially": 5534,
      "ns_": 5535,
      "pprint": 5536,
      "choo": 5537,
      "n_repeat": 5538,
      "abs_": 5539,
      "periodic": 5540,
      "_ini": 5541,
      "ax2": 5542,
      "denom": 5543,
      "predictive": 5544,
      "failures": 5545,
      "priors": 5546,
      "Compon": 5547,
      "changes": 5548,
      "accepts": 5549,
      "DecisionBoundary": 5550,
      "record_": 5551,
      "Quant": 5552,
      "################################################################": 5553,
      "Methods": 5554,
      "MiniBatchKMeans": 5555,
      "converge": 5556,
      "Update": 5557,
      "Newton": 5558,
      "expression": 5559,
      "DecisionBoundaryDisplay": 5560,
      "_dist": 5561,
      "vate": 5562,
      "parents": 5563,
      "test_hello": 5564,
      "parse_version": 5565,
      "init_": 5566,
      "loads": 5567,
      "_sklearn": 5568,
      "normalized_": 5569,
      "manhattan": 5570,
      "_info__": 5571,
      "significant": 5572,
      "symmetric": 5573,
      "Element": 5574,
      "ascii": 5575,
      "__array_namespace_info__": 5576,
      ".],": 5577,
      "Be": 5578,
      "DB": 5579,
      "_compute_": 5580,
      "}.\"": 5581,
      "ess_": 5582,
      "itor": 5583,
      "loaded": 5584,
      "()]": 5585,
      "``-": 5586,
      "_ids": 5587,
      "20newsgroup": 5588,
      "flag": 5589,
      "transformers_": 5590,
      "black": 5591,
      "writeable": 5592,
      "squared_error": 5593,
      "SGDRegressor": 5594,
      "_squared_": 5595,
      "staticmethod": 5596,
      "generate_unique_id_function": 5597,
      "reedom": 5598,
      "contamination": 5599,
      "<<": 5600,
      "_plot_": 5601,
      "lif": 5602,
      "approp": 5603,
      "mod_": 5604,
      "interest": 5605,
      "argsort": 5606,
      "hood": 5607,
      "deviation": 5608,
      "solvers": 5609,
      "Line": 5610,
      "hookimpl": 5611,
      "LassoLars": 5612,
      "strictly": 5613,
      "Polynomial": 5614,
      "analyzer": 5615,
      "appropri": 5616,
      "\"(": 5617,
      "56": 5618,
      "92": 5619,
      "=(\"": 5620,
      "Fix": 5621,
      "gain": 5622,
      "only_": 5623,
      "rewrite": 5624,
      "analysis": 5625,
      "_sli": 5626,
      "foob": 5627,
      "interpre": 5628,
      "installed": 5629,
      "http_": 5630,
      "handled": 5631,
      "ous_": 5632,
      "base_loss": 5633,
      "delayed": 5634,
      "some_": 5635,
      "power_": 5636,
      "abstractmethod": 5637,
      "relevant": 5638,
      "KD": 5639,
      "_Unset": 5640,
      "cwd": 5641,
      "gn": 5642,
      "estimator_tag": 5643,
      "_stat": 5644,
      "resulting": 5645,
      "list_alias": 5646,
      "y_true_": 5647,
      "...]": 5648,
      "classifier_": 5649,
      "l1_reg": 5650,
      "handling": 5651,
      "Hook": 5652,
      "averaged_": 5653,
      "Argument": 5654,
      "estimator_tags_": 5655,
      "85": 5656,
      "_make_": 5657,
      "bus": 5658,
      "eas": 5659,
      "huber": 5660,
      "espan": 5661,
      "experim": 5662,
      "n_labels": 5663,
      "\")),": 5664,
      "int_": 5665,
      "liers": 5666,
      "shift": 5667,
      "test_one": 5668,
      "X_mean": 5669,
      "arg2": 5670,
      "validation_fraction": 5671,
      "capsys": 5672,
      "Chain": 5673,
      "COO": 5674,
      "coordinate": 5675,
      "31": 5676,
      "Squar": 5677,
      "Url": 5678,
      "\\[": 5679,
      "table": 5680,
      "uid": 5681,
      "incorrect": 5682,
      "rection": 5683,
      "anation": 5684,
      "stag": 5685,
      "fore_": 5686,
      "appro": 5687,
      "verse_": 5688,
      "before_": 5689,
      "_step": 5690,
      "train_sizes": 5691,
      "scaled": 5692,
      "helper": 5693,
      "ESTIM": 5694,
      "abilities": 5695,
      "=[(\"": 5696,
      "metric_kwargs": 5697,
      "_for_tests": 5698,
      "optimize": 5699,
      "method_mapping": 5700,
      "reduce": 5701,
      "dimensionality": 5702,
      "_array_api_for_tests": 5703,
      "FAILED": 5704,
      "CountVectorizer": 5705,
      "jinja_env": 5706,
      "foobar": 5707,
      "ESTIMAT": 5708,
      "Jar": 5709,
      "Tfidf": 5710,
      "_iter": 5711,
      "ylim": 5712,
      "}}": 5713,
      "inner_": 5714,
      "etc": 5715,
      "parsing": 5716,
      "mini": 5717,
      "hould": 5718,
      "various": 5719,
      "until": 5720,
      "erepr": 5721,
      "_model_": 5722,
      "numpydoc": 5723,
      "}\".": 5724,
      "available_if": 5725,
      "score_func": 5726,
      "RuntimeWarning": 5727,
      "_by_alias": 5728,
      "Initial": 5729,
      "GB": 5730,
      "Len": 5731,
      "mu": 5732,
      "mom": 5733,
      "marg": 5734,
      "native": 5735,
      "wright": 5736,
      "recomm": 5737,
      "stic": 5738,
      "for_": 5739,
      "lil": 5740,
      "_invalid": 5741,
      "coefs_": 5742,
      "scorers": 5743,
      "generation": 5744,
      "response_model_include": 5745,
      "_missing_values": 5746,
      "green": 5747,
      "langu": 5748,
      "internally": 5749,
      "Calcul": 5750,
      "MethodMapping": 5751,
      "adjusted_": 5752,
      "########################################################################": 5753,
      "_types": 5754,
      "au": 5755,
      "chan": 5756,
      "concent": 5757,
      "important": 5758,
      "y_mean": 5759,
      "ampler": 5760,
      "parseconfig": 5761,
      "prom": 5762,
      "iris_": 5763,
      "subtest": 5764,
      "cription": 5765,
      "Convert": 5766,
      "Unknown": 5767,
      "direction": 5768,
      "swap": 5769,
      "exec": 5770,
      "recursion": 5771,
      "Determines": 5772,
      "herit": 5773,
      "Quantile": 5774,
      "94": 5775,
      "FLO": 5776,
      "ME": 5777,
      "Missing": 5778,
      "VERS": 5779,
      "Xs": 5780,
      "_html": 5781,
      "ior": 5782,
      "res_": 5783,
      "Trun": 5784,
      "###": 5785,
      "defaultdict": 5786,
      "max_bins": 5787,
      "sock": 5788,
      "actually": 5789,
      "associ": 5790,
      "Prediction": 5791,
      "assignment": 5792,
      "Ord": 5793,
      "namespace_packages": 5794,
      "Aggl": 5795,
      "Overri": 5796,
      "_enforce_": 5797,
      "minkowski": 5798,
      "'`,": 5799,
      ":,": 5800,
      "UM": 5801,
      "_al": 5802,
      "_tol": 5803,
      "fy": 5804,
      "correction": 5805,
      "fixed_": 5806,
      "[::": 5807,
      "category_": 5808,
      "splitting": 5809,
      "_redirect": 5810,
      "boundaries": 5811,
      "_check_sample_weight": 5812,
      "Perform": 5813,
      "ITH": 5814,
      "PYTEST_": 5815,
      "gaussian_process": 5816,
      "KNeighborsClassifier": 5817,
      "uploadfile": 5818,
      "broken": 5819,
      "consider_namespace_packages": 5820,
      "explained_variance": 5821,
      "Agglomer": 5822,
      "Since": 5823,
      "eval_": 5824,
      "ones_": 5825,
      "__dict": 5826,
      "weights_": 5827,
      "_style": 5828,
      "lists": 5829,
      "isect": 5830,
      "runs": 5831,
      "read_text": 5832,
      "INFO": 5833,
      "_bit": 5834,
      "uffer": 5835,
      "_scale_": 5836,
      "processing": 5837,
      "threading": 5838,
      "agger_": 5839,
      "_sparse_dot": 5840,
      "_counts": 5841,
      "cccc": 5842,
      "keepdims": 5843,
      "exactly": 5844,
      "HistGradientBoostingClassifier": 5845,
      "stop_": 5846,
      "AUC": 5847,
      "moment": 5848,
      "__dict__": 5849,
      "43": 5850,
      "]*": 5851,
      "gp": 5852,
      "kneighbors_graph": 5853,
      "oit": 5854,
      "pap": 5855,
      "trig": 5856,
      "seu": 5857,
      "_sym": 5858,
      "n_retries": 5859,
      "int16": 5860,
      "test_a": 5861,
      "d_tree": 5862,
      "Conne": 5863,
      "n_classes_": 5864,
      "root_path": 5865,
      "Transformed": 5866,
      "updated": 5867,
      "strategies": 5868,
      "localhost": 5869,
      "labels_true": 5870,
      "connected_": 5871,
      "binarize": 5872,
      "CookieJar": 5873,
      "assume_centered": 5874,
      "hinge": 5875,
      "_enforce_estimator_tags_": 5876,
      "67": 5877,
      "_group": 5878,
      "bas": 5879,
      "fmt": 5880,
      "ging": 5881,
      "iso": 5882,
      "few": 5883,
      "outerr": 5884,
      "novel": 5885,
      "bincount": 5886,
      "lines_": 5887,
      "zeros_": 5888,
      "rand_data": 5889,
      "send_": 5890,
      "truncation": 5891,
      "Addition": 5892,
      "houette": 5893,
      "directories": 5894,
      "Cy": 5895,
      "Mach": 5896,
      "big": 5897,
      "d2_": 5898,
      "ogene": 5899,
      "sl": 5900,
      "estor": 5901,
      "adr": 5902,
      "weight_": 5903,
      "argparse": 5904,
      "eta0": 5905,
      "ayout": 5906,
      "raw_predictions": 5907,
      "know": 5908,
      "_svmlight": 5909,
      "Password": 5910,
      "includes": 5911,
      "doc_link": 5912,
      "deselected": 5913,
      "NN": 5914,
      "_0": 5915,
      "cdf": 5916,
      "ifor": 5917,
      "knn": 5918,
      "s1": 5919,
      "usu": 5920,
      "inator": 5921,
      "online": 5922,
      "third": 5923,
      "cls_": 5924,
      "csv": 5925,
      "bycol": 5926,
      "cancer": 5927,
      "Dep": 5928,
      "{})": 5929,
      "leaf_size": 5930,
      "squared_": 5931,
      "illu": 5932,
      "_server": 5933,
      "final_estimator": 5934,
      "parallel_backend": 5935,
      "appropriate": 5936,
      "seudo": 5937,
      "N_t": 5938,
      "_open": 5939,
      "_header": 5940,
      "mb": 5941,
      "won": 5942,
      "amg": 5943,
      "ings": 5944,
      "expon": 5945,
      "__traceback": 5946,
      "baset": 5947,
      "linewidth": 5948,
      "parametrization": 5949,
      "is_classifier": 5950,
      "attrs": 5951,
      "fixturedefs": 5952,
      "Y_labels": 5953,
      "LassoCV": 5954,
      "feature_importances": 5955,
      "Constant": 5956,
      "_instance": 5957,
      "Calculate": 5958,
      "!\"": 5959,
      "MDS": 5960,
      "NAM": 5961,
      "_equivalence": 5962,
      "bot": 5963,
      "brier": 5964,
      "mp_": 5965,
      "are_": 5966,
      "_side": 5967,
      "unknown_": 5968,
      "lfw_": 5969,
      "n_train": 5970,
      "shapes": 5971,
      "ed_by": 5972,
      "sample_indices": 5973,
      "([[\"": 5974,
      "install": 5975,
      "set_ylabel": 5976,
      "ArrayNamespace": 5977,
      "Propag": 5978,
      "collect_": 5979,
      "accepted": 5980,
      "NodeId": 5981,
      "laplacian": 5982,
      "voting": 5983,
      "Operation": 5984,
      "soft": 5985,
      "approach": 5986,
      "Length": 5987,
      "\"%": 5988,
      "){": 5989,
      "199": 5990,
      "[[\"": 5991,
      "_d": 5992,
      "aim": 5993,
      "bold": 5994,
      "dof": 5995,
      "lb": 5996,
      "si": 5997,
      "erical": 5998,
      "etic": 5999,
      "peated": 6000,
      "uld_": 6001,
      "y_val": 6002,
      "outside": 6003,
      "funcs": 6004,
      "train_scores": 6005,
      "_weighted": 6006,
      "ange_": 6007,
      "TestReport": 6008,
      "api_": 6009,
      "regr": 6010,
      "negative_": 6011,
      "_token": 6012,
      "_classif": 6013,
      "_metrics": 6014,
      "starlette": 6015,
      "Ordinal": 6016,
      "06": 6017,
      "Enum": 6018,
      "Vers": 6019,
      "VER": 6020,
      "_data_": 6021,
      "_graph": 6022,
      "_routing_": 6023,
      "ham": 6024,
      "ient": 6025,
      "viz": 6026,
      "chastic": 6027,
      "pytorch": 6028,
      "entire": 6029,
      "s_info": 6030,
      "returning": 6031,
      "feature_selection": 6032,
      "plotting": 6033,
      "curity_": 6034,
      "Conf": 6035,
      "GradientBoostingClassifier": 6036,
      "total_": 6037,
      "class_prior": 6038,
      "oob_score": 6039,
      "r2_score": 6040,
      "PrecisionRecall": 6041,
      "PATH": 6042,
      "PrecisionRecallDisplay": 6043,
      "Ac": 6044,
      "METRICS": 6045,
      "Pri": 6046,
      "_handler": 6047,
      "c1": 6048,
      "day": 6049,
      "escap": 6050,
      "impact": 6051,
      "utdown": 6052,
      "_sol": 6053,
      "n_dof": 6054,
      "setdefault": 6055,
      "checking": 6056,
      "get_metadata_routing": 6057,
      "istical": 6058,
      "check_estimator": 6059,
      "ngram": 6060,
      "ired_": 6061,
      "pointwise": 6062,
      "started": 6063,
      "tection": 6064,
      "statement": 6065,
      "FunctionTransformer": 6066,
      "sqrt_sw": 6067,
      "first_by_tag": 6068,
      "calculate": 6069,
      "type_of": 6070,
      "receive": 6071,
      "mutual_info_score": 6072,
      "_build_": 6073,
      "discussion": 6074,
      "POST": 6075,
      "Formatter": 6076,
      "concentr": 6077,
      "HDBSCAN": 6078,
      "Mem": 6079,
      "Must": 6080,
      "gle": 6081,
      "patial": 6082,
      "book": 6083,
      "running": 6084,
      "input_name": 6085,
      "non_missing": 6086,
      "level3": 6087,
      "set_config": 6088,
      "implements": 6089,
      "cats": 6090,
      "reporter": 6091,
      "dump": 6092,
      "gbdt": 6093,
      "representing": 6094,
      "MultiOutput": 6095,
      "embedded": 6096,
      "configured": 6097,
      "~~~~~~~~": 6098,
      "whose": 6099,
      "quote": 6100,
      "lars_path": 6101,
      "ierarch": 6102,
      "appear": 6103,
      "Benchmark": 6104,
      "DType": 6105,
      "GR": 6106,
      "Malloc": 6107,
      "Roc": 6108,
      "lst": 6109,
      "sle": 6110,
      "arrow": 6111,
      "detection": 6112,
      "stress": 6113,
      "_su": 6114,
      "n_bins_": 6115,
      "prevent": 6116,
      "vide": 6117,
      "scores_": 6118,
      "make_column_": 6119,
      "filled": 6120,
      "TypeVar": 6121,
      "actual_": 6122,
      "integers": 6123,
      "handles": 6124,
      "agger": 6125,
      "_sparse_random": 6126,
      "safe_sparse_dot": 6127,
      "duplicates": 6128,
      "StringIO": 6129,
      "entropy": 6130,
      "OneVsRest": 6131,
      "homogene": 6132,
      "denominator": 6133,
      "experiment": 6134,
      "basetemp": 6135,
      "OneVsRestClassifier": 6136,
      "03": 6137,
      "Has": 6138,
      "Let": 6139,
      "SI": 6140,
      "_fail": 6141,
      "mixture": 6142,
      "nca": 6143,
      "pyproject": 6144,
      "elf": 6145,
      "els": 6146,
      "tolist": 6147,
      "n_components_": 6148,
      "X_new": 6149,
      "get_first_by_tag": 6150,
      "output_": 6151,
      "_search": 6152,
      "operations": 6153,
      "removing": 6154,
      "_subprocess": 6155,
      "GroupKFold": 6156,
      "compare_": 6157,
      "ALID": 6158,
      "observed": 6159,
      "........": 6160,
      "_scheme": 6161,
      "cumul": 6162,
      "FORES": 6163,
      "Verify": 6164,
      "elasticnet": 6165,
      "ransac_estimator": 6166,
      "adratic": 6167,
      ";\\": 6168,
      "Tags": 6169,
      "xticks": 6170,
      "}\":": 6171,
      "inal_": 6172,
      "end_": 6173,
      "test_score": 6174,
      "etween": 6175,
      "export": 6176,
      "fron": 6177,
      "s_to_": 6178,
      "shuff": 6179,
      "olds": 6180,
      "randomly": 6181,
      "iteration_": 6182,
      "scoring_": 6183,
      "contextlib": 6184,
      "device_dtype_": 6185,
      "Selector": 6186,
      "full_": 6187,
      "tied": 6188,
      "strip_": 6189,
      "estimation": 6190,
      "poly": 6191,
      "RidgeCV": 6192,
      "cmd": 6193,
      "FeatureUnion": 6194,
      "xyz": 6195,
      "namespace_device_dtype_": 6196,
      "fontsize": 6197,
      "jaccard_score": 6198,
      "yield_namespace_device_dtype_": 6199,
      "choose": 6200,
      "associated": 6201,
      "OrdinalEncoder": 6202,
      "RocCurveDisplay": 6203,
      "yield_namespace_device_dtype_combinations": 6204,
      "TH": 6205,
      "_L": 6206,
      "dra": 6207,
      "further": 6208,
      "gc": 6209,
      "push": 6210,
      "ved_": 6211,
      "omp": 6212,
      "_syn": 6213,
      "roll": 6214,
      "ceptr": 6215,
      "errorbar": 6216,
      "clf3": 6217,
      "api_if": 6218,
      "vary": 6219,
      "coef_init": 6220,
      "cluded": 6221,
      "intercept_scaling": 6222,
      "positives": 6223,
      "runpytest_subprocess": 6224,
      "age_error": 6225,
      "Requests": 6226,
      "remove_": 6227,
      "_subtasks": 6228,
      "empty_features": 6229,
      "line_kw": 6230,
      "imputed": 6231,
      "processors": 6232,
      "though": 6233,
      "DEFA": 6234,
      "binary_": 6235,
      "Control": 6236,
      "visualization": 6237,
      "ABC": 6238,
      "centroids": 6239,
      "FOO": 6240,
      "guar": 6241,
      "ign_api_if": 6242,
      "PARAM": 6243,
      "noisy": 6244,
      "eval_gradient": 6245,
      "DEFAUL": 6246,
      "ign_api_if_sparse": 6247,
      "150": 6248,
      "But": 6249,
      "Self": 6250,
      "Tag": 6251,
      "\\]": 6252,
      "mpl": 6253,
      "xunit": 6254,
      "xlim": 6255,
      "inc": 6256,
      "(\".": 6257,
      "import_path": 6258,
      "=======": 6259,
      "outcome": 6260,
      "cir": 6261,
      "flow": 6262,
      "readouterr": 6263,
      "ipca": 6264,
      "pied": 6265,
      "presents": 6266,
      "poster": 6267,
      "package_": 6268,
      "255": 6269,
      "log_file": 6270,
      "Routing": 6271,
      "task_id": 6272,
      "load_digits": 6273,
      "polynomial": 6274,
      "combination": 6275,
      "binned_": 6276,
      "oob_": 6277,
      "_TRE": 6278,
      "Distance": 6279,
      "Calibrated": 6280,
      "wrap_": 6281,
      "n_repeats": 6282,
      "Ax": 6283,
      "Solver": 6284,
      "_at": 6285,
      "_32": 6286,
      "az": 6287,
      "ki": 6288,
      "pp": 6289,
      "security_": 6290,
      "plac": 6291,
      "n_redundant": 6292,
      "do_": 6293,
      "transformed_": 6294,
      "\"]],": 6295,
      "[::-": 6296,
      "regar": 6297,
      "_exp": 6298,
      "manually": 6299,
      "dddd": 6300,
      "mock_": 6301,
      "response_model_exclude_defaults": 6302,
      "TSNE": 6303,
      "symlink": 6304,
      "user_id": 6305,
      "correlated": 6306,
      "Dependence": 6307,
      "emp_cov": 6308,
      "public": 6309,
      "urllib3": 6310,
      "Prepared": 6311,
      "Acc": 6312,
      "Ef": 6313,
      "Hero": 6314,
      "Rob": 6315,
      "Star": 6316,
      "_000": 6317,
      "gy": 6318,
      "s2": 6319,
      "ract": 6320,
      "intp": 6321,
      "track": 6322,
      "run_and_": 6323,
      "variate_": 6324,
      "10000": 6325,
      "node_": 6326,
      "-----------": 6327,
      "level1": 6328,
      "rootpath": 6329,
      "]]).": 6330,
      "related": 6331,
      "GradientBoostingRegressor": 6332,
      "population": 6333,
      "nnz": 6334,
      "_multiclass": 6335,
      "inverted_": 6336,
      "lifespan": 6337,
      "Override": 6338,
      "_align_api_if_sparse": 6339,
      "ceptron": 6340,
      "run_and_parse": 6341,
      "*)": 6342,
      "_de": 6343,
      "bench": 6344,
      "gr": 6345,
      "zoom": 6346,
      "arithm": 6347,
      "reconstruction": 6348,
      "implicit": 6349,
      "peci": 6350,
      "apter": 6351,
      "prepend": 6352,
      "out_": 6353,
      "Remove": 6354,
      "float_dtype": 6355,
      "ante": 6356,
      "mean_squared_error": 6357,
      "cycl": 6358,
      "PathLike": 6359,
      "allowed_": 6360,
      "queries": 6361,
      "memmap": 6362,
      "Child": 6363,
      "sequent": 6364,
      "tempor": 6365,
      "structured": 6366,
      "fit_task_end": 6367,
      "stratify": 6368,
      "likelihood_ratio": 6369,
      "zeros_like": 6370,
      "type_of_target": 6371,
      "KE": 6372,
      "MC": 6373,
      "rule": 6374,
      "tic": 6375,
      "reconstruct": 6376,
      "divergence": 6377,
      "izer_": 6378,
      "dence": 6379,
      "APIRoute": 6380,
      "subtests": 6381,
      "set_xlabel": 6382,
      "_between": 6383,
      "ordered_": 6384,
      "Proxy": 6385,
      "estimate_": 6386,
      "common_": 6387,
      "improve": 6388,
      "DummyClassifier": 6389,
      "affinity_": 6390,
      "drop_intermediate": 6391,
      "rotation": 6392,
      "novelty": 6393,
      "Gmax": 6394,
      "hard": 6395,
      "ople": 6396,
      "rees_": 6397,
      "dec_": 6398,
      "clon": 6399,
      "chr": 6400,
      "cosine": 6401,
      "ulli": 6402,
      "toy": 6403,
      "expo": 6404,
      "y_xp": 6405,
      "test_get": 6406,
      "noulli": 6407,
      "contribut": 6408,
      "meaning": 6409,
      "_scoring": 6410,
      "Interrupt": 6411,
      "----------------------------------------": 6412,
      "explanation": 6413,
      "hist_": 6414,
      "fill_": 6415,
      "HEAD": 6416,
      "best_estimator_": 6417,
      "Estimated": 6418,
      "introdu": 6419,
      "ones_like": 6420,
      ",\"": 6421,
      "Ball": 6422,
      "Red": 6423,
      "Zoom": 6424,
      "gcv_": 6425,
      "pli": 6426,
      "forward": 6427,
      "admin": 6428,
      "test_path_": 6429,
      "runtime": 6430,
      "BaseExceptionGroup": 6431,
      "data_path": 6432,
      "svc": 6433,
      "return_train_score": 6434,
      "without_": 6435,
      "find_": 6436,
      "_summary": 6437,
      "ccp_": 6438,
      "others": 6439,
      "NOT": 6440,
      "tutorial001_": 6441,
      "RandomForestRegressor": 6442,
      "mismatch": 6443,
      "_sorted": 6444,
      "mapped": 6445,
      "saferepr": 6446,
      "pectral_": 6447,
      "staged_": 6448,
      "ESTIMATORS": 6449,
      "PreparedRequest": 6450,
      "(())": 6451,
      "*\\": 6452,
      "CL": 6453,
      "Win": 6454,
      "_results": 6455,
      "_override": 6456,
      "nia": 6457,
      "tab": 6458,
      "reverse": 6459,
      "copied": 6460,
      "mount": 6461,
      "supt": 6462,
      "extmath": 6463,
      "desp": 6464,
      "subdomain": 6465,
      "_freedom": 6466,
      "globals": 6467,
      "flush": 6468,
      "gradient_out": 6469,
      "================================================================": 6470,
      "_layout": 6471,
      "})\"": 6472,
      "seeds": 6473,
      "xxx": 6474,
      "topic_": 6475,
      "fill_between": 6476,
      "observe": 6477,
      "Approx": 6478,
      "_targets": 6479,
      "legacy": 6480,
      "dependency_overrides": 6481,
      "paste": 6482,
      "SKIP": 6483,
      "machine": 6484,
      "Version": 6485,
      "CalibratedClassifierCV": 6486,
      "inverted_cdf": 6487,
      "(``": 6488,
      "Wo": 6489,
      "_no": 6490,
      "card": 6491,
      "hierarch": 6492,
      "orthogonal": 6493,
      "itive": 6494,
      "edThreshold": 6495,
      "people": 6496,
      "valence": 6497,
      "e_distances": 6498,
      "test_post_": 6499,
      "cessor": 6500,
      "conting": 6501,
      "transpose": 6502,
      "item2": 6503,
      "vars": 6504,
      "bin_idx": 6505,
      "fit_request": 6506,
      "computed_": 6507,
      "tail": 6508,
      "taken": 6509,
      "svg": 6510,
      "RegressorMixin": 6511,
      "users_": 6512,
      "playwright": 6513,
      "normalization": 6514,
      "imputation": 6515,
      "coverage": 6516,
      "chunk_size": 6517,
      "gressors": 6518,
      "deterministic": 6519,
      "similarity": 6520,
      "store_true": 6521,
      "tight_layout": 6522,
      "grower": 6523,
      "major": 6524,
      "############################################################################": 6525,
      "ifornia": 6526,
      "guarante": 6527,
      ")``.": 6528,
      "04": 6529,
      "29": 6530,
      "Ca": 6531,
      "Ro": 6532,
      "Should": 6533,
      "Tuple": 6534,
      "_val": 6535,
      "_set_": 6536,
      "ber_": 6537,
      "vv": 6538,
      "err_": 6539,
      "\");": 6540,
      "pread": 6541,
      "X_offset": 6542,
      "call_on_": 6543,
      "_mse": 6544,
      "warning_message": 6545,
      "scorer_": 6546,
      "2000": 6547,
      "_exist": 6548,
      "fully": 6549,
      "eggs": 6550,
      "svd_": 6551,
      "cluster_size": 6552,
      "precision_score": 6553,
      "{}),": 6554,
      "return_n_iter": 6555,
      "private": 6556,
      "Required": 6557,
      "currently": 6558,
      "pred_decision": 6559,
      "longer": 6560,
      "sync_": 6561,
      "column_names": 6562,
      "reached": 6563,
      "TESTS": 6564,
      "interaction_only": 6565,
      "MinMax": 6566,
      "laz": 6567,
      "access_": 6568,
      "GaussianProcessRegressor": 6569,
      "language": 6570,
      "n_bins_non_missing": 6571,
      "posterior": 6572,
      "Ber": 6573,
      "GL": 6574,
      "Isol": 6575,
      "SOM": 6576,
      "_py": 6577,
      "`[": 6578,
      "dash": 6579,
      "edian": 6580,
      "_simple": 6581,
      "plus": 6582,
      "role": 6583,
      "of_freedom": 6584,
      "wikipedia": 6585,
      "compact": 6586,
      "corr": 6587,
      "shutil": 6588,
      "arge": 6589,
      "transf": 6590,
      "item1": 6591,
      "version_info": 6592,
      "matrix_": 6593,
      "passes": 6594,
      "dirname": 6595,
      "failing": 6596,
      "attribute_": 6597,
      "allow_nan": 6598,
      "Projection": 6599,
      "extrapolation": 6600,
      "Graph": 6601,
      "_indicator": 6602,
      "signal": 6603,
      "degrees_": 6604,
      "raisable": 6605,
      "prepare": 6606,
      "Constraint": 6607,
      "precision_recall_f": 6608,
      "PartialDependence": 6609,
      "suptitle": 6610,
      "SOME_": 6611,
      "degrees_of_freedom": 6612,
      "PartialDependenceDisplay": 6613,
      "57": 6614,
      ":\"": 6615,
      "Cate": 6616,
      "Cannot": 6617,
      "\\.": 6618,
      "rst": 6619,
      "wal": 6620,
      "ine_": 6621,
      "\")])": 6622,
      "__module": 6623,
      "**{": 6624,
      "duct": 6625,
      "clos": 6626,
      "reg_": 6627,
      "irect": 6628,
      "solve": 6629,
      "Stat": 6630,
      "_COL": 6631,
      "allow_un": 6632,
      "Logger": 6633,
      "durations": 6634,
      "opts": 6635,
      "no_response_model": 6636,
      "Algorithm": 6637,
      "sorted_": 6638,
      "threadpool": 6639,
      "LogisticRegressionCV": 6640,
      "labels_pred": 6641,
      "squares": 6642,
      "plot_method": 6643,
      "complexity": 6644,
      "_is_numpy_namespace": 6645,
      "percentile_rank": 6646,
      "modify": 6647,
      "TSET": 6648,
      "robeni": 6649,
      "ElasticNetCV": 6650,
      "discrete": 6651,
      "indicating": 6652,
      "check_sample_weight_equivalence": 6653,
      "Components": 6654,
      "Additional": 6655,
      "Categor": 6656,
      "__module__": 6657,
      "LAS": 6658,
      "Nystroem": 6659,
      "_R": 6660,
      "_match": 6661,
      "hence": 6662,
      "k1": 6663,
      "ni": 6664,
      "rs": 6665,
      "safe_": 6666,
      "te_": 6667,
      "represents": 6668,
      "pline": 6669,
      "protocol": 6670,
      "apper": 6671,
      "_mapping": 6672,
      "min_weight": 6673,
      "descr": 6674,
      "dists": 6675,
      "ending": 6676,
      "having": 6677,
      "typically": 6678,
      "]]:": 6679,
      "with_mean": 6680,
      "signed": 6681,
      "eye": 6682,
      "percentiles": 6683,
      "correspond": 6684,
      "preserved": 6685,
      "averaging": 6686,
      "=====================================================": 6687,
      "multilabel_classification": 6688,
      "_dense_sparse": 6689,
      "blas_functions": 6690,
      "mesh": 6691,
      "Machine": 6692,
      "brier_score_": 6693,
      "MinMaxScaler": 6694,
      ".+": 6695,
      ":=": 6696,
      "F401": 6697,
      "Gamma": 6698,
      "slow": 6699,
      "tem": 6700,
      "arily": 6701,
      "ensity": 6702,
      "imension": 6703,
      "codes": 6704,
      "top_": 6705,
      "n_test": 6706,
      "()))": 6707,
      "compres": 6708,
      "file_name": 6709,
      "logs": 6710,
      "initial_": 6711,
      "alias_and_validation_alias": 6712,
      "multi_output": 6713,
      "set_fit_request": 6714,
      "gether": 6715,
      "writing": 6716,
      "]]))": 6717,
      "LinearModel": 6718,
      "offset_": 6719,
      "multinomial": 6720,
      "_init_": 6721,
      "utf8": 6722,
      "time_": 6723,
      "view_": 6724,
      "Binary": 6725,
      "Naive": 6726,
      "calculated": 6727,
      "_fraction_leaf": 6728,
      "one_hot": 6729,
      "Dependency": 6730,
      "KBins": 6731,
      "keep_empty_features": 6732,
      "upper_bound": 6733,
      "feature_importances_": 6734,
      "_routing_enabled": 6735,
      "BallTree": 6736,
      "Windows": 6737,
      "Wolf": 6738,
      "Isolation": 6739,
      "Led": 6740,
      "PA": 6741,
      "seem": 6742,
      "testcase": 6743,
      "omap": 6744,
      "cles": 6745,
      "rop": 6746,
      "ula": 6747,
      "n_nodes": 6748,
      "n_rows": 6749,
      "ints": 6750,
      "liac": 6751,
      "adding": 6752,
      "compli": 6753,
      "])],": 6754,
      "doi": 6755,
      "_inertia": 6756,
      "json_schema": 6757,
      "contextmanager": 6758,
      "Params": 6759,
      "_folder": 6760,
      "...)": 6761,
      "Mode": 6762,
      "right_": 6763,
      "Neighbor": 6764,
      "TICS": 6765,
      "Post": 6766,
      "FixtureDef": 6767,
      "remaining": 6768,
      "bbbb": 6769,
      "_single_": 6770,
      "provides": 6771,
      "Incremental": 6772,
      "hide__": 6773,
      "Discretizer": 6774,
      "__tracebackhide__": 6775,
      "KBinsDiscretizer": 6776,
      "Ledoit": 6777,
      "41": 6778,
      "CON": 6779,
      "Dir": 6780,
      "Mut": 6781,
      "NA": 6782,
      "Samples": 6783,
      "_plot": 6784,
      "sc": 6785,
      "erial": 6786,
      "chdir": 6787,
      "ceed": 6788,
      "together": 6789,
      "ote": 6790,
      "wiki": 6791,
      "prevalence": 6792,
      "retri": 6793,
      "``(": 6794,
      "Recor": 6795,
      "error_msg": 6796,
      "check_array_api": 6797,
      "make_multilabel_classification": 6798,
      "df_": 6799,
      "starting": 6800,
      "relation": 6801,
      "best_index": 6802,
      "403": 6803,
      "OneOf": 6804,
      "pytest_configure": 6805,
      "_lars": 6806,
      "score_params": 6807,
      "Generic": 6808,
      "SparsePCA": 6809,
      "active_size": 6810,
      "response_model_exclude_none": 6811,
      "LabelEncoder": 6812,
      "IsOneOf": 6813,
      "_mean_squared_error": 6814,
      "Therefore": 6815,
      "OPTICS": 6816,
      "ancestor": 6817,
      "round_": 6818,
      "nmf": 6819,
      "n_outputs_": 6820,
      "\"^": 6821,
      "((\"": 6822,
      "2e": 6823,
      "87": 6824,
      "Score": 6825,
      "Upload": 6826,
      "XA": 6827,
      "_covariance": 6828,
      "nans": 6829,
      "pseudo": 6830,
      "rnd": 6831,
      "sav": 6832,
      "onical": 6833,
      "atis": 6834,
      "omial_": 6835,
      "claim": 6836,
      "()[": 6837,
      "poli": 6838,
      "bayes": 6839,
      "_incre": 6840,
      "_weights_": 6841,
      "able_encoder": 6842,
      "value_": 6843,
      "jsonable_encoder": 6844,
      "norm_squared": 6845,
      "probably": 6846,
      "places": 6847,
      "default_factory": 6848,
      "history": 6849,
      "resolve_": 6850,
      "f1_score": 6851,
      "route_context": 6852,
      "character": 6853,
      "MetricWarning": 6854,
      "working_memory": 6855,
      "Compare": 6856,
      "UndefinedMetricWarning": 6857,
      "Cache": 6858,
      "49": 6859,
      "HO": 6860,
      "Iss": 6861,
      "LIL": 6862,
      "Neg": 6863,
      "OF": 6864,
      "Temp": 6865,
      "UP": 6866,
      "cid": 6867,
      "mor": 6868,
      "uuid": 6869,
      "vo": 6870,
      "regressors": 6871,
      "image_": 6872,
      "_scopes": 6873,
      "often": 6874,
      "()])": 6875,
      "preds": 6876,
      "test_query_": 6877,
      "nothing": 6878,
      "_mon": 6879,
      "matched": 6880,
      "expects": 6881,
      "Now": 6882,
      "tend_": 6883,
      "algo": 6884,
      "dropped": 6885,
      "going": 6886,
      "calibrated": 6887,
      "truncated": 6888,
      "Bytes": 6889,
      "anced_": 6890,
      "verbose_feature_names_out": 6891,
      "LeaveOne": 6892,
      "twice": 6893,
      "Agglomerative": 6894,
      "connected_components": 6895,
      "usually": 6896,
      "frontend_": 6897,
      "circles": 6898,
      "Robust": 6899,
      "Issue": 6900,
      "DI": 6901,
      "MET": 6902,
      "Sampler": 6903,
      "_files": 6904,
      "afe": 6905,
      "cup": 6906,
      "h1": 6907,
      "ystem": 6908,
      "decl": 6909,
      "det_": 6910,
      "isn": 6911,
      "pyright": 6912,
      "dif": 6913,
      "share": 6914,
      "test_method": 6915,
      "test_parametrize_": 6916,
      "kept": 6917,
      "sures": 6918,
      "suite": 6919,
      "]);": 6920,
      "equals": 6921,
      "multipart": 6922,
      "overrid": 6923,
      "_paths": 6924,
      "rand_score": 6925,
      ".\".": 6926,
      "baseline": 6927,
      "pytest_addoption": 6928,
      "target_colors": 6929,
      "distributed": 6930,
      "stacklevel": 6931,
      "members": 6932,
      "alphas_": 6933,
      "GaussianNB": 6934,
      "current_app": 6935,
      "fetch_20newsgroup": 6936,
      "SkipTest": 6937,
      "Calibration": 6938,
      "DictionaryLearning": 6939,
      "ball_tree": 6940,
      "SciPy": 6941,
      "RANS": 6942,
      "access_token": 6943,
      "Bernoulli": 6944,
      "brier_score_loss": 6945,
      "/\"": 6946,
      "_dataset": 6947,
      "_pattern": 6948,
      "_dispatch": 6949,
      "basic": 6950,
      "sp_": 6951,
      "ention": 6952,
      "__main": 6953,
      "Validat": 6954,
      "level2": 6955,
      "constra": 6956,
      "flu": 6957,
      "ModelField": 6958,
      "[[-": 6959,
      "inipath": 6960,
      "download_": 6961,
      "highest": 6962,
      "wards": 6963,
      "collection_": 6964,
      "sqr": 6965,
      "constant_": 6966,
      "existing": 6967,
      "determine": 6968,
      "conditional": 6969,
      "Current": 6970,
      "approximate": 6971,
      "previously": 6972,
      "drop_idx": 6973,
      "coo_container": 6974,
      "suffix": 6975,
      "standardi": 6976,
      "KDTree": 6977,
      "agger_u": 6978,
      "HasMethods": 6979,
      "cardinal": 6980,
      "robenius": 6981,
      "min_weight_fraction_leaf": 6982,
      "RANSAC": 6983,
      "Nu": 6984,
      "[~": 6985,
      "_x": 6986,
      "_options": 6987,
      "w0": 6988,
      "inconsistent": 6989,
      "ality": 6990,
      "repo": 6991,
      "is_scalar": 6992,
      "gets": 6993,
      "coded": 6994,
      "Cls": 6995,
      "distin": 6996,
      "runtest": 6997,
      "backward": 6998,
      "cython": 6999,
      "url_prefix": 7000,
      "autosummary": 7001,
      "pdb_": 7002,
      "raw_values": 7003,
      "centering": 7004,
      "_union": 7005,
      "LinearDiscriminantAnalysis": 7006,
      "load_diabetes": 7007,
      "penalized": 7008,
      "Iterative": 7009,
      "SGDOneClassSVM": 7010,
      "likely": 7011,
      "serialization": 7012,
      "_series": 7013,
      "covar_type": 7014,
      "Handler": 7015,
      "potent": 7016,
      "KEY": 7017,
      "__main__": 7018,
      "'`.": 7019,
      "Huber": 7020,
      "La": 7021,
      "MPL": 7022,
      "]\"": 7023,
      "git": 7024,
      "guide": 7025,
      "spatial": 7026,
      "vet": 7027,
      "semi": 7028,
      "n_categories": 7029,
      "getLogger": 7030,
      "weak": 7031,
      "per_class": 7032,
      "_weighted_": 7033,
      "fake": 7034,
      "_tuple": 7035,
      "runk": 7036,
      "series": 7037,
      "_example": 7038,
      "BaseExc": 7039,
      "most_frequent": 7040,
      "conftest_": 7041,
      "differences": 7042,
      "completen": 7043,
      "pytest_collect": 7044,
      "task_name": 7045,
      "impute": 7046,
      "cov_": 7047,
      "Least": 7048,
      "IterEstimator": 7049,
      "roc_curve": 7050,
      "_min_": 7051,
      "permutation_": 7052,
      "KernelPCA": 7053,
      "trials": 7054,
      "Helper": 7055,
      "recall_score": 7056,
      "Order": 7057,
      "attem": 7058,
      "warn_msg": 7059,
      "━━━━━━━━━━━━━━━━": 7060,
      "extensions": 7061,
      "Description": 7062,
      "placed": 7063,
      "Categorical": 7064,
      "UploadFile": 7065,
      "Negative": 7066,
      "Bro": 7067,
      "BUG": 7068,
      "LIN": 7069,
      "Vt": 7070,
      "_order": 7071,
      "_root": 7072,
      "bgmm": 7073,
      "c2": 7074,
      "hat": 7075,
      "hast": 7076,
      "ls": 7077,
      "ms": 7078,
      "yticks": 7079,
      "inherit": 7080,
      "anob": 7081,
      "_sho": 7082,
      "_stack": 7083,
      "trans1": 7084,
      "labeling": 7085,
      "circ": 7086,
      "error_message": 7087,
      "array_type": 7088,
      "parametrized": 7089,
      "bin_": 7090,
      "kwds": 7091,
      "depend": 7092,
      "ing_loss": 7093,
      "url_for": 7094,
      "RandomProjection": 7095,
      "main_": 7096,
      "Document": 7097,
      "_shutdown": 7098,
      "stepwise": 7099,
      "Collection": 7100,
      "score_name": 7101,
      "records": 7102,
      "filenames": 7103,
      "mean_variance_": 7104,
      "Keyboard": 7105,
      "Defaults": 7106,
      "determined": 7107,
      "DEBUG": 7108,
      "use_legacy_": 7109,
      "halanob": 7110,
      "Added": 7111,
      "interaction_cst": 7112,
      "^^^^^^^^^^^^^^^^": 7113,
      "Scorer": 7114,
      "Decorator": 7115,
      "silhouette": 7116,
      "VotingClassifier": 7117,
      "CollectReport": 7118,
      "COO_CONTAINERS": 7119,
      "KeyboardInterrupt": 7120,
      "use_legacy_attributes": 7121,
      "39": 7122,
      "Pdb": 7123,
      "RT": 7124,
      "TED": 7125,
      "family": 7126,
      "ii": 7127,
      "slight": 7128,
      "atleast": 7129,
      "amed": 7130,
      "_size_": 7131,
      "ceil": 7132,
      "umbus": 7133,
      "test_re": 7134,
      "izers": 7135,
      "doe": 7136,
      "ifies": 7137,
      "inity": 7138,
      "sole": 7139,
      "however": 7140,
      "mean_test_score": 7141,
      "Parse": 7142,
      "funcargs": 7143,
      "formatter": 7144,
      "splitlines": 7145,
      "X_train_": 7146,
      "allow_": 7147,
      "=====================================================================================": 7148,
      "target_type": 7149,
      "min_cluster_size": 7150,
      "_startup": 7151,
      "uniform_average": 7152,
      "MetadataRequest": 7153,
      "restart": 7154,
      "consistent_length": 7155,
      "last_mean": 7156,
      "belong": 7157,
      "DummyRegressor": 7158,
      "_by_name": 7159,
      "Adapter": 7160,
      "hidden": 7161,
      "empty_like": 7162,
      "v_measure": 7163,
      "fit_task_begin": 7164,
      "_CLASSI": 7165,
      "permutation_importance": 7166,
      "DIS": 7167,
      "Fil": 7168,
      "LS": 7169,
      "SET": 7170,
      "eval": 7171,
      "range_": 7172,
      "tf": 7173,
      "u_": 7174,
      "xdist": 7175,
      "enter": 7176,
      "confi": 7177,
      "test_function": 7178,
      "fit_time": 7179,
      "X_dense": 7180,
      "_stuff": 7181,
      "routed": 7182,
      "interpolation": 7183,
      "[:]": 7184,
      "INTER": 7185,
      "...\")": 7186,
      "Randomized": 7187,
      "quee": 7188,
      "classifiers_": 7189,
      "root_": 7190,
      "ability_": 7191,
      "read_items_": 7192,
      "_initial": 7193,
      "metric_name": 7194,
      "Dirichlet": 7195,
      "_for_": 7196,
      "plot_chance_level": 7197,
      "spherical": 7198,
      "_count_": 7199,
      "scaler_in": 7200,
      "leading": 7201,
      "receiv": 7202,
      "spline": 7203,
      "definition": 7204,
      "Full": 7205,
      "GP": 7206,
      "OB": 7207,
      "T_template_": 7208,
      "_column": 7209,
      "oh": 7210,
      "pip": 7211,
      "squee": 7212,
      "uint64": 7213,
      "}`": 7214,
      "deal": 7215,
      "loo": 7216,
      "prefit": 7217,
      "trim": 7218,
      "moved": 7219,
      "____": 7220,
      "item__": 7221,
      "_mix": 7222,
      "aliases": 7223,
      "haust": 7224,
      "imputer_": 7225,
      "vectors_": 7226,
      "enable_": 7227,
      "MetaEstimator": 7228,
      "MaxIterEstimator": 7229,
      "devices": 7230,
      "randomized_svd": 7231,
      "_times": 7232,
      "covariances_": 7233,
      "person": 7234,
      "rfecv": 7235,
      "averaged_inverted_cdf": 7236,
      "TfidfVectorizer": 7237,
      "recommended": 7238,
      "momentum": 7239,
      "Confusion": 7240,
      "_TREES": 7241,
      "halanobis": 7242,
      "Spline": 7243,
      "kdd": 7244,
      "nt": 7245,
      "ype": 7246,
      "atives": 7247,
      "thes": 7248,
      "---": 7249,
      "entr": 7250,
      "ural": 7251,
      "undo": 7252,
      "unexpected": 7253,
      "typer": 7254,
      "ponsor": 7255,
      "compose": 7256,
      "X_fit": 7257,
      "n_samples_se": 7258,
      ").\"": 7259,
      "california": 7260,
      "_infrequent": 7261,
      "axes_": 7262,
      "file_size": 7263,
      "minversion": 7264,
      "fix_": 7265,
      "_tree_": 7266,
      "check_consistent_length": 7267,
      "subcontext": 7268,
      "_idf": 7269,
      "grads": 7270,
      "linear_": 7271,
      "set_trace": 7272,
      "active_": 7273,
      "assert_allclose_dense_sparse": 7274,
      "modname": 7275,
      "{}\".": 7276,
      "callback0": 7277,
      "html_": 7278,
      "Enable": 7279,
      "csr_matrix": 7280,
      "_to_split": 7281,
      "visual_": 7282,
      "initialize": 7283,
      "regressor_": 7284,
      "simpl": 7285,
      "calibrator": 7286,
      "sequential": 7287,
      "shrinking": 7288,
      "routing_methods": 7289,
      "invoke": 7290,
      "ArgK": 7291,
      "correlation": 7292,
      "descr_": 7293,
      "OAuth2Password": 7294,
      "johndoe": 7295,
      "lower_bound": 7296,
      "Propagation": 7297,
      "experimental": 7298,
      "drawn": 7299,
      "ccp_alpha": 7300,
      "cardinality": 7301,
      "IterativeImputer": 7302,
      "visual_block": 7303,
      "Down": 7304,
      "Final": 7305,
      "Sw": 7306,
      "Vie": 7307,
      "[])": 7308,
      "ased": 7309,
      "car": 7310,
      "fbeta": 7311,
      "ihook": 7312,
      "lsqr": 7313,
      "mit": 7314,
      "}],": 7315,
      "inliers": 7316,
      "an_py310": 7317,
      "theme": 7318,
      "ellow": 7319,
      "test_security_": 7320,
      "setAttribute": 7321,
      "X_res_": 7322,
      "mary_": 7323,
      "dtype_": 7324,
      "_inverse_": 7325,
      "_median": 7326,
      "fact": 7327,
      "design": 7328,
      "var_": 7329,
      "run_": 7330,
      "computes": 7331,
      "site": 7332,
      "modcol": 7333,
      "cat_bit": 7334,
      "validator": 7335,
      "Entry": 7336,
      "response_values": 7337,
      "Authentic": 7338,
      "abspath": 7339,
      "compared": 7340,
      "_lim": 7341,
      "ranking": 7342,
      "vider": 7343,
      "TargetEncoder": 7344,
      "SelectFrom": 7345,
      "averaged": 7346,
      "Doe": 7347,
      "_argmin": 7348,
      "Matching": 7349,
      "'``:": 7350,
      "OutlierFactor": 7351,
      "BaggingClassifier": 7352,
      "LocalOutlierFactor": 7353,
      "gzip_": 7354,
      "FLOAT": 7355,
      "IsolationForest": 7356,
      "AgglomerativeClustering": 7357,
      "hastie_": 7358,
      "ArgKmin": 7359,
      "View": 7360,
      "SelectFromModel": 7361,
      ")\"\"\"": 7362,
      "61": 7363,
      "68": 7364,
      "Exp": 7365,
      "Lat": 7366,
      "_random": 7367,
      "buffer": 7368,
      "kd_tree": 7369,
      "mand": 7370,
      "nn_": 7371,
      "rate_": 7372,
      "sizes": 7373,
      "t1": 7374,
      "td": 7375,
      "xfailed": 7376,
      "eng": 7377,
      "imetric": 7378,
      "exhaust": 7379,
      "abort": 7380,
      "prep": 7381,
      "X_data": 7382,
      "app_": 7383,
      "init_params": 7384,
      "this_": 7385,
      "discover": 7386,
      "mental_": 7387,
      "Deprecated": 7388,
      "cluster_std": 7389,
      "from_parent": 7390,
      "statistics": 7391,
      "treated": 7392,
      "threshold_": 7393,
      "learning_rate_": 7394,
      "calibration_": 7395,
      "gressive": 7396,
      "Without": 7397,
      "Perceptron": 7398,
      "detected": 7399,
      "_raise_for": 7400,
      "illustr": 7401,
      "Axes": 7402,
      "distinct": 7403,
      "DES": 7404,
      "Evalu": 7405,
      "Find": 7406,
      "Named": 7407,
      "Syn": 7408,
      "WIS": 7409,
      "_linalg": 7410,
      "cle": 7411,
      "fx": 7412,
      "f_idx": 7413,
      "frequency": 7414,
      "gh": 7415,
      "gbr": 7416,
      "k2": 7417,
      "kneighbors": 7418,
      "ncols": 7419,
      "{{": 7420,
      "sec": 7421,
      "_so": 7422,
      "coding": 7423,
      "ify_": 7424,
      "();": 7425,
      "ational": 7426,
      "test_fail": 7427,
      "test_no_": 7428,
      "``).": 7429,
      "_status": 7430,
      "peri": 7431,
      "));": 7432,
      "byte": 7433,
      "jsonl": 7434,
      "text_": 7435,
      "making": 7436,
      "stdin": 7437,
      "set_random_state": 7438,
      "NotInt": 7439,
      "precisions": 7440,
      "unique_labels": 7441,
      "\"*=": 7442,
      "Prob": 7443,
      "seek": 7444,
      "min_resources": 7445,
      "positional": 7446,
      "param_range": 7447,
      "stream_": 7448,
      "Power": 7449,
      "Positive": 7450,
      "RealNotInt": 7451,
      "TYPES": 7452,
      "oob_score_": 7453,
      "fitted_attr": 7454,
      "ExtraTree": 7455,
      "quality": 7456,
      "item_items__": 7457,
      "tsne": 7458,
      "Settings": 7459,
      "PolynomialFeatures": 7460,
      "weight_concentr": 7461,
      "sleep": 7462,
      "DEFAULT_": 7463,
      "policy": 7464,
      "BytesIO": 7465,
      "07": 7466,
      "84": 7467,
      "Pack": 7468,
      "Wrap": 7469,
      "]+": 7470,
      "bidden": 7471,
      "eigh": 7472,
      "kpca": 7473,
      "p2": 7474,
      "turn": 7475,
      "yellow": 7476,
      "──": 7477,
      "reser": 7478,
      "elap": 7479,
      "unchanged": 7480,
      "()).": 7481,
      "stratified": 7482,
      "delenv": 7483,
      "arginal_": 7484,
      "label_rank": 7485,
      "get_config": 7486,
      "_marginal_": 7487,
      "json_": 7488,
      "APIKey": 7489,
      "load_svmlight": 7490,
      "_best": 7491,
      "response_model_by_alias": 7492,
      "param_distributions": 7493,
      "456": 7494,
      "x1b": 7495,
      "modified_": 7496,
      "Minimum": 7497,
      "anchor": 7498,
      "_sqrt": 7499,
      "Box": 7500,
      "nbrs": 7501,
      "Controls": 7502,
      "overridden": 7503,
      "mean_variance_axis": 7504,
      "53": 7505,
      "Del": 7506,
      "Json": 7507,
      "Pur": 7508,
      "Tun": 7509,
      "\\|": 7510,
      "_est": 7511,
      "_obj": 7512,
      "ij": 7513,
      "kf": 7514,
      "oa": 7515,
      "rc_": 7516,
      "align": 7517,
      "\",),": 7518,
      "fortran": 7519,
      "pytestpm": 7520,
      "s_with_": 7521,
      "test_index": 7522,
      "dicts": 7523,
      "_indent": 7524,
      "viol": 7525,
      "dsv": 7526,
      "anti": 7527,
      "Classification": 7528,
      "validations": 7529,
      "make_friedman": 7530,
      "PytestWarning": 7531,
      "_reason": 7532,
      "_fast": 7533,
      "wolf": 7534,
      "full_name": 7535,
      "ARFF": 7536,
      "min_length": 7537,
      "lambda_": 7538,
      "effects": 7539,
      "smallest": 7540,
      "builder": 7541,
      "quantile_method": 7542,
      "common_params": 7543,
      "n_samples_Y": 7544,
      "resolve": 7545,
      "network": 7546,
      "UNC": 7547,
      "NOTSET": 7548,
      "nndsv": 7549,
      "missing_values_": 7550,
      "row_norms": 7551,
      "_issubclass": 7552,
      "win32": 7553,
      "Decorated": 7554,
      "junit_": 7555,
      "DATA": 7556,
      "sparsity": 7557,
      "closest": 7558,
      "Neighborhood": 7559,
      "Broken": 7560,
      "kddcup": 7561,
      "89": 7562,
      "=>": 7563,
      "Aut": 7564,
      "IG": 7565,
      "Stop": 7566,
      "_consistency": 7567,
      "hess_": 7568,
      "iloc": 7569,
      "sco": 7570,
      "sw_": 7571,
      "tfidf": 7572,
      "ste": 7573,
      "dirichlet": 7574,
      "n_folds": 7575,
      "n_queries": 7576,
      "get_scorer": 7577,
      "test_un": 7578,
      "test_client": 7579,
      "mechan": 7580,
      "``)": 7581,
      "X_r": 7582,
      "assert_attr": 7583,
      "floats": 7584,
      "sgd": 7585,
      "descript": 7586,
      "intercept_init": 7587,
      "mlb": 7588,
      "Types": 7589,
      "set_callbacks": 7590,
      "return_std": 7591,
      "updates": 7592,
      "changed_": 7593,
      "log_cli": 7594,
      "specification": 7595,
      "noise_": 7596,
      "produce": 7597,
      "attach": 7598,
      "Cluster": 7599,
      "Vari": 7600,
      "Timeout": 7601,
      "chance_level_kw": 7602,
      "PluginManager": 7603,
      "register_blueprint": 7604,
      "WWW": 7605,
      "external": 7606,
      "_slice": 7607,
      "marginal": 7608,
      "auc_": 7609,
      "regarding": 7610,
      "cyclic": 7611,
      "Filter": 7612,
      "squeeze": 7613,
      "Authenticate": 7614,
      "AA": 7615,
      "AX": 7616,
      "Ht": 7617,
      "_cv": 7618,
      "_filename": 7619,
      "_estimate_": 7620,
      "m1": 7621,
      "png": 7622,
      "is_s": 7623,
      "tested": 7624,
      "clus": 7625,
      "_source": 7626,
      "_similar": 7627,
      "distr": 7628,
      "of_": 7629,
      "console": 7630,
      "()],": 7631,
      "import_": 7632,
      "frames": 7633,
      "lies": 7634,
      "adcast": 7635,
      "ship": 7636,
      "test_pass": 7637,
      "strong": 7638,
      "poch": 7639,
      "sklearn_": 7640,
      "iterator": 7641,
      "four": 7642,
      "n_features_out": 7643,
      "_two": 7644,
      "accur": 7645,
      "_proxy": 7646,
      "overfitting": 7647,
      "groups_": 7648,
      "openapi_extra": 7649,
      "numerator": 7650,
      "repeating": 7651,
      "represented": 7652,
      "3333": 7653,
      "candidate_": 7654,
      "mixed": 7655,
      "pairwise_distances_argmin": 7656,
      "minimize": 7657,
      "DistanceMetric": 7658,
      "slightly": 7659,
      "SplineTransformer": 7660,
      "DecoratedCallable": 7661,
      "mechanism": 7662,
      "\"+": 7663,
      "(\"\")": 7664,
      "GS": 7665,
      "NAL": 7666,
      "UI": 7667,
      "_encode": 7668,
      "ek": 7669,
      "frac": 7670,
      "gini": 7671,
      "nz": 7672,
      "itch": 7673,
      "isual": 7674,
      "parsed": 7675,
      "verage": 7676,
      "X_embedded": 7677,
      "log_marginal_": 7678,
      "_sequ": 7679,
      "_prox": 7680,
      "level4": 7681,
      "scaler_": 7682,
      "applicable": 7683,
      "TreeEstimator": 7684,
      "ARD": 7685,
      "Prefix": 7686,
      "_shuffle": 7687,
      "_shrink": 7688,
      "commit": 7689,
      "bound_": 7690,
      "approximately": 7691,
      "Orthogonal": 7692,
      "=============": 7693,
      "frozenset": 7694,
      "wraps": 7695,
      "********": 7696,
      "residual": 7697,
      "_weighted_percentile": 7698,
      "n_samples_seen_": 7699,
      "weight_concentration_": 7700,
      "(?": 7701,
      "Act": 7702,
      "Pa": 7703,
      "PER": 7704,
      "_width": 7705,
      "_update_": 7706,
      "ice_": 7707,
      "nb": 7708,
      "nk": 7709,
      "pract": 7710,
      "ud": 7711,
      "iness": 7712,
      "ary_": 7713,
      "issubclass": 7714,
      "conversion": 7715,
      "(){": 7716,
      "trust": 7717,
      "test_request": 7718,
      "nostic": 7719,
      "Rece": 7720,
      "checker": 7721,
      "call_": 7722,
      "equal_": 7723,
      "Inc": 7724,
      "_tw": 7725,
      "button": 7726,
      "achie": 7727,
      "discrimin": 7728,
      "_family": 7729,
      "supported_": 7730,
      "clusterer": 7731,
      "rowser": 7732,
      "reprcrash": 7733,
      "from_cv_results": 7734,
      "neg_label": 7735,
      "download": 7736,
      "tmp_path_": 7737,
      "_shift": 7738,
      "batches": 7739,
      "test_sho": 7740,
      "initialized": 7741,
      "_for_type": 7742,
      "preference": 7743,
      "expan": 7744,
      "calibrated_": 7745,
      "array_api_compli": 7746,
      "websocket_": 7747,
      "ICE": 7748,
      "duplicate": 7749,
      "cache_dir": 7750,
      "UTF": 7751,
      "MLPClassifier": 7752,
      "activation": 7753,
      "Internal": 7754,
      "alternative": 7755,
      "list_alias_and_validation_alias": 7756,
      "Connect": 7757,
      "ngram_range": 7758,
      "tutorial001_py310": 7759,
      "Graphical": 7760,
      "SOME_FLOAT": 7761,
      "potentially": 7762,
      "$\",": 7763,
      ":\")": 7764,
      "DEN": 7765,
      "El": 7766,
      "Flo": 7767,
      "RA": 7768,
      "X_scale": 7769,
      "city": 7770,
      "ground_": 7771,
      "mur": 7772,
      "pert": 7773,
      "spectral": 7774,
      "tnode": 7775,
      "v0": 7776,
      "}]": 7777,
      "thetic": 7778,
      "isation": 7779,
      "isdtype": 7780,
      "divide": 7781,
      "n_candidates": 7782,
      "ume": 7783,
      "umul": 7784,
      "getfixture": 7785,
      "test_invalid": 7786,
      "__post": 7787,
      "nocover": 7788,
      "perature": 7789,
      "log_proba": 7790,
      "max_resources": 7791,
      "========================": 7792,
      "generic": 7793,
      "scales": 7794,
      "cated_": 7795,
      "errno": 7796,
      "address": 7797,
      "Unexpected": 7798,
      "updated_": 7799,
      "integral": 7800,
      "tech": 7801,
      "author": 7802,
      "_cd": 7803,
      "handlers": 7804,
      "visit": 7805,
      "Color": 7806,
      "power_t": 7807,
      "Percent": 7808,
      "release_not": 7809,
      "prepare_": 7810,
      "transform_algorithm": 7811,
      "weedie_": 7812,
      "IndexError": 7813,
      "Abstract": 7814,
      "_of_": 7815,
      "highlighter": 7816,
      "_teardown": 7817,
      "Writer": 7818,
      "make_column_transformer": 7819,
      "corrcoef": 7820,
      "scaler_incr": 7821,
      "_raise_for_params": 7822,
      "').": 7823,
      "0e": 7824,
      "FC": 7825,
      "FD": 7826,
      "Sto": 7827,
      "Zero": 7828,
      "_unique": 7829,
      "browser": 7830,
      "epoch": 7831,
      "kde": 7832,
      "rho": 7833,
      "real_": 7834,
      "recover": 7835,
      "leak": 7836,
      "imal_": 7837,
      "loky": 7838,
      "if_missing": 7839,
      "cessing": 7840,
      "maxsize": 7841,
      "housing": 7842,
      "sity_": 7843,
      "fixturenames": 7844,
      "univariate_": 7845,
      "proxy_": 7846,
      "start_": 7847,
      "capman": 7848,
      "return_path": 7849,
      "_get_response_values": 7850,
      "events": 7851,
      "DOCS": 7852,
      "save": 7853,
      "Isotonic": 7854,
      "Captured": 7855,
      "vocabular": 7856,
      "ExtraTrees": 7857,
      "Runner": 7858,
      "heroes": 7859,
      "translation": 7860,
      "pytest_runtest_log": 7861,
      "MAX_": 7862,
      "Truncated": 7863,
      "stop_words": 7864,
      "bottom": 7865,
      "pecially": 7866,
      "atisfi": 7867,
      "download_if_missing": 7868,
      "fbeta_score": 7869,
      "\"`.": 7870,
      "Density": 7871,
      "Redu": 7872,
      "ST": 7873,
      "_typing": 7874,
      "pages": 7875,
      "ris": 7876,
      "especially": 7877,
      "itu": 7878,
      "_sig": 7879,
      "self_request": 7880,
      "()]):": 7881,
      "addf": 7882,
      "formula": 7883,
      "path5": 7884,
      "X_centered": 7885,
      "ed_data": 7886,
      "argmin": 7887,
      "translat": 7888,
      "number_": 7889,
      "logical_": 7890,
      "genitems": 7891,
      "subdir": 7892,
      "password_": 7893,
      "sizeof": 7894,
      "expected_msg": 7895,
      "overlap": 7896,
      "RandomSearchCV": 7897,
      "_path_": 7898,
      "syspath": 7899,
      "response_description": 7900,
      "TAN": 7901,
      "sql": 7902,
      "member": 7903,
      "_indices_": 7904,
      "eled_": 7905,
      "pickled": 7906,
      "inverse_func": 7907,
      "_metadata": 7908,
      "balanced_": 7909,
      "conditions": 7910,
      "Binomial": 7911,
      "separate": 7912,
      "execution": 7913,
      "assume_finite": 7914,
      "TerminalWriter": 7915,
      "empirical_covariance": 7916,
      "shared": 7917,
      "HalvingRandomSearchCV": 7918,
      "n_clusters_per_class": 7919,
      "Finally": 7920,
      "Cython": 7921,
      "temporary": 7922,
      "read_items_items__": 7923,
      "Pursuit": 7924,
      "vocabulary_": 7925,
      "addfinal": 7926,
      "\"`,": 7927,
      "*(": 7928,
      "51": 7929,
      "79": 7930,
      "Euclidean": 7931,
      "NS": 7932,
      "QU": 7933,
      "_post_": 7934,
      "_deviance": 7935,
      "eo": 7936,
      "eve": 7937,
      "lrap": 7938,
      "sors": 7939,
      "size_": 7940,
      "ws_": 7941,
      "x00": 7942,
      "arget_": 7943,
      "renamed": 7944,
      "pytestconfig": 7945,
      "\"\"\")": 7946,
      "dataframe_": 7947,
      "test_3": 7948,
      "test_xfail": 7949,
      "strpath": 7950,
      "proced": 7951,
      "__cause": 7952,
      "train_idx": 7953,
      "xp_": 7954,
      "\"]]": 7955,
      "_target_": 7956,
      "subsets": 7957,
      "regard": 7958,
      "read_model_": 7959,
      "Stash": 7960,
      "score_support": 7961,
      "_recur": 7962,
      "expected_response": 7963,
      "url_r": 7964,
      "overwritten": 7965,
      "auto_error": 7966,
      "ValidationAlias": 7967,
      "ModelOptional": 7968,
      "ModelRequired": 7969,
      "Dispatch": 7970,
      "complet": 7971,
      "target_tags": 7972,
      "min_impur": 7973,
      "Func": 7974,
      "aggreg": 7975,
      "Quadratic": 7976,
      "learning_curve": 7977,
      "ENT": 7978,
      "ity_decrease": 7979,
      "broadcast": 7980,
      "display_style": 7981,
      "Scoring": 7982,
      "Weights": 7983,
      "std_display_style": 7984,
      "KBest": 7985,
      "significantly": 7986,
      "power_iteration_": 7987,
      "precision_recall_fscore_support": 7988,
      "INTERNAL": 7989,
      "Package": 7990,
      "url_rule": 7991,
      "min_impurity_decrease": 7992,
      "69": 7993,
      ">\")": 7994,
      "CE": 7995,
      "GOR": 7996,
      "PRO": 7997,
      "PAC": 7998,
      "SL": 7999,
      "Same": 8000,
      "_parse": 8001,
      "kes": 8002,
      "q_": 8003,
      "spect": 8004,
      "xk": 8005,
      "xtick": 8006,
      "or_1d": 8007,
      "deed": 8008,
      "among": 8009,
      "isot": 8010,
      "test1": 8011,
      "oml": 8012,
      "dico": 8013,
      "datab": 8014,
      "n_knots": 8015,
      "()}": 8016,
      "(\"%": 8017,
      "please": 8018,
      "outer_": 8019,
      "izations": 8020,
      "])]": 8021,
      "logspace": 8022,
      "max_categories": 8023,
      "irch": 8024,
      "pix": 8025,
      "PytestPluginManager": 8026,
      "pipeline_": 8027,
      "detailed": 8028,
      "linkage_": 8029,
      "========================================": 8030,
      "child_scope": 8031,
      "Progress": 8032,
      "budget": 8033,
      "structures": 8034,
      "span": 8035,
      "captured_": 8036,
      "follows": 8037,
      "optimized": 8038,
      "OSS_": 8039,
      "latent": 8040,
      "decimal_": 8041,
      "column_or_1d": 8042,
      "doc_topic_": 8043,
      "dense_output": 8044,
      "Predicted": 8045,
      "gradient_hessian": 8046,
      "Build": 8047,
      "johnson": 8048,
      "svm_csr_": 8049,
      "Principal": 8050,
      "QuantileTransformer": 8051,
      "chron": 8052,
      "despine": 8053,
      "IncrementalPCA": 8054,
      "agger_ui_": 8055,
      "syspathinsert": 8056,
      "__cause__": 8057,
      "power_iteration_normalizer": 8058,
      "Both": 8059,
      "CP": 8060,
      "FIL": 8061,
      "Kl": 8062,
      "PDB": 8063,
      "Sen": 8064,
      "ball_": 8065,
      "f_classif": 8066,
      "hold": 8067,
      "iinfo": 8068,
      "n_sub": 8069,
      "pad": 8070,
      "qr": 8071,
      "w_size": 8072,
      "oriz": 8073,
      "ard_": 8074,
      "rem": 8075,
      "dep_": 8076,
      "testpath": 8077,
      "_spl": 8078,
      "plane": 8079,
      "coor": 8080,
      "excluded": 8081,
      "test_override": 8082,
      "[\"*": 8083,
      "X_true": 8084,
      "Repeated": 8085,
      "_inf": 8086,
      "principal": 8087,
      "clients": 8088,
      "paired_": 8089,
      "_mess": 8090,
      "routes_": 8091,
      "Then": 8092,
      "pred2": 8093,
      "_scorers": 8094,
      "_fold": 8095,
      "data_type": 8096,
      "indices_": 8097,
      "fnmatch": 8098,
      "normalize_": 8099,
      "best_score_": 8100,
      "_undefin": 8101,
      "authorization": 8102,
      "Always": 8103,
      "all_gradients": 8104,
      "connected": 8105,
      "General": 8106,
      "timing": 8107,
      "applies": 8108,
      "Functions": 8109,
      "latest": 8110,
      "chunked": 8111,
      "tmpfile": 8112,
      "5000": 8113,
      "trunc": 8114,
      "reachability_": 8115,
      "preserve": 8116,
      "redirects": 8117,
      "MarkDecorator": 8118,
      "gradient_boosting": 8119,
      "edgecolor": 8120,
      "dual_gap": 8121,
      "inferred": 8122,
      "pinball_": 8123,
      "escaped": 8124,
      "_sparse_random_array": 8125,
      "reg_covar": 8126,
      "completeness": 8127,
      "RandomizedSearchCV": 8128,
      "TruncatedSVD": 8129,
      "orizont": 8130,
      "140": 8131,
      "83": 8132,
      "Back": 8133,
      "Cor": 8134,
      "Dire": 8135,
      "Hess": 8136,
      "MSE": 8137,
      "OOB": 8138,
      "Sum": 8139,
      "jit": 8140,
      "rer": 8141,
      "ran": 8142,
      "yles": 8143,
      "inlier": 8144,
      "demon": 8145,
      "amp": 8146,
      "etim": 8147,
      "_show": 8148,
      "_safe": 8149,
      "):.": 8150,
      "expand": 8151,
      "try_": 8152,
      "sha": 8153,
      "y_i": 8154,
      "notes": 8155,
      "agnostic": 8156,
      "path_params": 8157,
      "random_": 8158,
      "_inverse": 8159,
      "Valid": 8160,
      "code_block": 8161,
      "clfs": 8162,
      "float_": 8163,
      "_te": 8164,
      "true_": 8165,
      "warning_": 8166,
      "cycle": 8167,
      "split_info": 8168,
      "_frequency": 8169,
      "writer": 8170,
      "Checks": 8171,
      "missing_": 8172,
      "Cov": 8173,
      "joint": 8174,
      "ORT": 8175,
      "session_": 8176,
      "ficient": 8177,
      "encodings": 8178,
      "comparing": 8179,
      "finding": 8180,
      "AST": 8181,
      "largest": 8182,
      "Poss": 8183,
      "180": 8184,
      "create_app": 8185,
      "_timeout": 8186,
      "cookiejar": 8187,
      "PLUG": 8188,
      "truncate": 8189,
      "SelectKBest": 8190,
      "OLVERS": 8191,
      "effective_metric_": 8192,
      "controls": 8193,
      "Regist": 8194,
      "_content_type": 8195,
      "Distances": 8196,
      "Matcher": 8197,
      "count_hooks": 8198,
      "_manual_": 8199,
      "MatrixDisplay": 8200,
      "orthogonal_m": 8201,
      "RobustScaler": 8202,
      "ConfusionMatrixDisplay": 8203,
      "junit_logging": 8204,
      "addfinalizer": 8205,
      "\"\\\\": 8206,
      "(%": 8207,
      "(\"\"\"": 8208,
      "3d": 8209,
      "Dask": 8210,
      "LARS": 8211,
      "Sol": 8212,
      "Schem": 8213,
      "_estimator_": 8214,
      "_average_": 8215,
      "bed_": 8216,
      "c3": 8217,
      "tstart": 8218,
      "{:.": 8219,
      "seg": 8220,
      "reject": 8221,
      "replaced": 8222,
      "strength": 8223,
      "lex": 8224,
      "cell": 8225,
      "n_quantiles": 8226,
      "abi": 8227,
      "(\".\")": 8228,
      "getoption": 8229,
      "prod": 8230,
      "ctions": 8231,
      "heuri": 8232,
      "learned": 8233,
      "dog": 8234,
      "doing": 8235,
      "_insensitive": 8236,
      "Thread": 8237,
      "sub1": 8238,
      "mean_t": 8239,
      "readable": 8240,
      "suppres": 8241,
      "NotFound": 8242,
      "Common": 8243,
      "length_scale_": 8244,
      "thread_un": 8245,
      "recorded": 8246,
      "media": 8247,
      "locations": 8248,
      "xxxx": 8249,
      "topic": 8250,
      "bitset": 8251,
      "viewport": 8252,
      "x_i": 8253,
      "Passive": 8254,
      "lasso_cd": 8255,
      "reachability": 8256,
      "transformer_list": 8257,
      "leads": 8258,
      "_serial": 8259,
      "extract_": 8260,
      "Aggressive": 8261,
      "neigh_ind": 8262,
      "dual_coef_": 8263,
      "failed_checks": 8264,
      "AdaBoostClassifier": 8265,
      "standardize": 8266,
      "DESCR": 8267,
      "_manual_routing": 8268,
      "'):": 8269,
      "Af": 8270,
      "Dimension": 8271,
      "_pos_label": 8272,
      "_local": 8273,
      "kan": 8274,
      "thand": 8275,
      "ission": 8276,
      "_sg": 8277,
      "pytest_session": 8278,
      "_stream": 8279,
      "maxim": 8280,
      "([])": 8281,
      "Insensitive": 8282,
      "closure": 8283,
      "input_type": 8284,
      "bool_": 8285,
      "data_train": 8286,
      "infinite": 8287,
      "fold_": 8288,
      "covariance_estimator": 8289,
      "statistical": 8290,
      "maps": 8291,
      "terminal_": 8292,
      "lambd": 8293,
      "Claim": 8294,
      "++;": 8295,
      "possib": 8296,
      "replacement": 8297,
      "replace_undefin": 8298,
      "\"`:": 8299,
      "TrainingClassifier": 8300,
      "tries": 8301,
      "previous_": 8302,
      "HalfBinomial": 8303,
      "propagation": 8304,
      "Buil": 8305,
      "particularly": 8306,
      "derived": 8307,
      "Memory": 8308,
      "GRESS": 8309,
      "SelfTrainingClassifier": 8310,
      "gcv_mode": 8311,
      "contingency": 8312,
      "kddcup99": 8313,
      "accurate": 8314,
      "_team": 8315,
      "HalfBinomialLoss": 8316,
      "/~": 8317,
      "3e": 8318,
      "Hidden": 8319,
      "Pat": 8320,
      "Sty": 8321,
      "System": 8322,
      "bs": 8323,
      "har": 8324,
      "lint": 8325,
      "ming": 8326,
      "nSV": 8327,
      "rtype": 8328,
      "uct": 8329,
      "ars_": 8330,
      "anom": 8331,
      "ency_": 8332,
      "getvalue": 8333,
      "appcontext": 8334,
      "col_idx": 8335,
      "check_scoring": 8336,
      "sampledir": 8337,
      "paces": 8338,
      "used_": 8339,
      "subsequent": 8340,
      "libr": 8341,
      "multipl": 8342,
      "_propag": 8343,
      "BaseRoute": 8344,
      "module_": 8345,
      "CATION": 8346,
      "_gain": 8347,
      "Dataset": 8348,
      "array_api_extra": 8349,
      "tokens": 8350,
      "complex128": 8351,
      "sequences": 8352,
      "Apply": 8353,
      "permission": 8354,
      "mixed_": 8355,
      "applying": 8356,
      "epsilon_insensitive": 8357,
      "HalfTweedie": 8358,
      "quotes": 8359,
      "lookup": 8360,
      "==============": 8361,
      "_multilabel": 8362,
      "hidden_layer": 8363,
      "successful": 8364,
      "happens": 8365,
      "ns_param": 8366,
      "l1_reg_strength": 8367,
      "gpc": 8368,
      "_enforce_estimator_tags_X": 8369,
      "basis": 8370,
      "shuffling": 8371,
      "entry_": 8372,
      "IncEx": 8373,
      "Float": 8374,
      "release_notes_": 8375,
      "Directory": 8376,
      "Hessian": 8377,
      "Possible": 8378,
      "After": 8379,
      "Style": 8380,
      "HalfTweedieLoss": 8381,
      "*\"]": 8382,
      "0x": 8383,
      "Ima": 8384,
      "_helpers": 8385,
      "lm": 8386,
      "pty": 8387,
      "deci": 8388,
      "ene": 8389,
      "\",)": 8390,
      "cop": 8391,
      "cogn": 8392,
      "elli": 8393,
      "elimin": 8394,
      "n_outliers": 8395,
      "n_cols": 8396,
      "prede": 8397,
      "intain": 8398,
      "corout": 8399,
      "embed_": 8400,
      "test_log": 8401,
      "test_two": 8402,
      "prog": 8403,
      "kew": 8404,
      "Try": 8405,
      "becomes": 8406,
      "trail": 8407,
      "trans2": 8408,
      "Ref": 8409,
      "get_n_splits": 8410,
      "min_frequency": 8411,
      "p_w": 8412,
      "max_lines": 8413,
      "max_length": 8414,
      "max_chars": 8415,
      "parametrized_": 8416,
      "interval_": 8417,
      "**:": 8418,
      "low_prior": 8419,
      "losses": 8420,
      "_expl": 8421,
      "_find_": 8422,
      "TypeAlias": 8423,
      "expected_type": 8424,
      "expected_dtype": 8425,
      "doctest_": 8426,
      "feature_names_in": 8427,
      "1298": 8428,
      "openapi_examples": 8429,
      "Annotation": 8430,
      "reported": 8431,
      "relpath": 8432,
      "svm_type": 8433,
      "add_indicator": 8434,
      "write_file": 8435,
      "regularized": 8436,
      "Point": 8437,
      "_missing_": 8438,
      "URES": 8439,
      "lasso_lars": 8440,
      "reduce_": 8441,
      "last_var": 8442,
      "LOAD": 8443,
      "separately": 8444,
      "update_H": 8445,
      "istry": 8446,
      "Empty": 8447,
      "original_route": 8448,
      "visualize": 8449,
      "decreasing": 8450,
      "tuning": 8451,
      "OPTIONS": 8452,
      "D_DOCS": 8453,
      "ConsumingClassifier": 8454,
      "annotation_return_": 8455,
      "Instance": 8456,
      "histograms": 8457,
      "SUB": 8458,
      "dynamic": 8459,
      "pruning": 8460,
      "trigger": 8461,
      "bycol1": 8462,
      "FOOD_DOCS": 8463,
      "cloned": 8464,
      "ComponentsAnalysis": 8465,
      "seems": 8466,
      "engine": 8467,
      "Syntax": 8468,
      "NeighborhoodComponentsAnalysis": 8469,
      "log_marginal_likelihood": 8470,
      "hidden_layer_sizes": 8471,
      "'])": 8472,
      "63": 8473,
      "=\"\")": 8474,
      "Dig": 8475,
      "EL": 8476,
      "G_H": 8477,
      "KNN": 8478,
      "]})": 8479,
      "_line": 8480,
      "dt_": 8481,
      "echo": 8482,
      "horizont": 8483,
      "influ": 8484,
      "step_": 8485,
      "ensures": 8486,
      "isclose": 8487,
      "resize": 8488,
      "unsupervised": 8489,
      "allback": 8490,
      "get_stuff": 8491,
      "y_std": 8492,
      "test_k": 8493,
      "noun": 8494,
      ":`.": 8495,
      "logic": 8496,
      "codeError": 8497,
      "face_": 8498,
      "floating_": 8499,
      "warnings_": 8500,
      "iven": 8501,
      "=======================": 8502,
      "funcitem": 8503,
      "Std_": 8504,
      "counts_": 8505,
      "allowance": 8506,
      "trying": 8507,
      "filter_": 8508,
      "Processing": 8509,
      "log_error": 8510,
      "999": 8511,
      "coverage_error": 8512,
      "add_url_rule": 8513,
      "letter": 8514,
      "mean_absolute_error": 8515,
      "OpenML": 8516,
      "identifier": 8517,
      "pairwise_kernels": 8518,
      "blocks": 8519,
      "synthetic": 8520,
      "choices": 8521,
      "limited": 8522,
      "flatnonzero": 8523,
      "Isomap": 8524,
      "MyTestCase": 8525,
      "Reporter": 8526,
      "halving": 8527,
      "callequal": 8528,
      "Regular": 8529,
      "taking": 8530,
      "force_finite": 8531,
      "suitable": 8532,
      "affects": 8533,
      "render_template": 8534,
      "precision_recall_curve": 8535,
      "BayesianRidge": 8536,
      "count_nonzero": 8537,
      "EPS": 8538,
      "middleware": 8539,
      "_squared_log_error": 8540,
      "xunit_family": 8541,
      "Acc1298": 8542,
      "Redirect": 8543,
      "GLM": 8544,
      "attempt": 8545,
      "cat_bitsets": 8546,
      "PowerTransformer": 8547,
      "missing_values_bin_idx": 8548,
      "isotrop": 8549,
      "PLUGIN": 8550,
      "replace_undefined_by": 8551,
      "G_H_DTYPE": 8552,
      "Acc1298_": 8553,
      "'<": 8554,
      "'`:": 8555,
      ")\\": 8556,
      "59": 8557,
      "73": 8558,
      "CE_": 8559,
      "PD": 8560,
      "R_": 8561,
      "Spe": 8562,
      "Similar": 8563,
      "VE_": 8564,
      "_int": 8565,
      "_set": 8566,
      "mn": 8567,
      "op_": 8568,
      "rev": 8569,
      "demand": 8570,
      "stage": 8571,
      "isfinite": 8572,
      "(\"[": 8573,
      "all_finite": 8574,
      "learner": 8575,
      "X_expected": 8576,
      "X_imputed": 8577,
      "parseopt": 8578,
      "cal_clf": 8579,
      "marked": 8580,
      "samplefile": 8581,
      "get_body_model_name": 8582,
      "log2": 8583,
      "Information": 8584,
      "inite_": 8585,
      "Thus": 8586,
      "should_": 8587,
      "sub2": 8588,
      "is_jax": 8589,
      "kwarg": 8590,
      "_provider": 8591,
      "level5": 8592,
      "_replace": 8593,
      "auto_": 8594,
      "otherdir": 8595,
      "classification_report": 8596,
      "start_time": 8597,
      "defines": 8598,
      "no_improvement": 8599,
      "Environ": 8600,
      "response_method_": 8601,
      "ensure_min": 8602,
      "_short": 8603,
      "performs": 8604,
      "test_simple": 8605,
      "Iteration": 8606,
      "complex64": 8607,
      "next_": 8608,
      "base_estimator": 8609,
      "ULTI": 8610,
      "MyEstimator": 8611,
      "Empirical": 8612,
      "sum_hessians": 8613,
      "HalfMultinomial": 8614,
      "serialized": 8615,
      "layout": 8616,
      "receive_": 8617,
      "NaNs": 8618,
      "malloc": 8619,
      "propagated": 8620,
      "FIXME": 8621,
      "AGE_": 8622,
      "legend_labels": 8623,
      "MultinomialNB": 8624,
      "adjusted_rand_score": 8625,
      "_solve": 8626,
      "cumulative": 8627,
      "THON": 8628,
      "dec_values": 8629,
      "dependency_overrides_provider": 8630,
      "pastebin": 8631,
      "temperature": 8632,
      "view_func": 8633,
      "json_schema_extra": 8634,
      "LIL_CONTAINERS": 8635,
      "METHO": 8636,
      "CalibrationDisplay": 8637,
      "thesis": 8638,
      "procedure": 8639,
      "Dispatcher": 8640,
      "HalfMultinomialLoss": 8641,
      "Ground": 8642,
      "More": 8643,
      "T_1": 8644,
      "^=": 8645,
      "_h": 8646,
      "_p": 8647,
      "bagg": 8648,
      "cfg": 8649,
      "dark": 8650,
      "js": 8651,
      "m2": 8652,
      "mim": 8653,
      "nrows": 8654,
      "pcg": 8655,
      "endif": 8656,
      "ominal": 8657,
      "unweighted": 8658,
      "pre_dispatch": 8659,
      "liz": 8660,
      "s_adjust": 8661,
      "out_file": 8662,
      "X_original": 8663,
      "ErrorDisplay": 8664,
      "Recording": 8665,
      "ast_": 8666,
      "max_subtasks": 8667,
      "training_": 8668,
      "css_": 8669,
      "_toml": 8670,
      "ClassName": 8671,
      "normally": 8672,
      "is_file": 8673,
      "formatted": 8674,
      "Look": 8675,
      "_fl": 8676,
      "module_path": 8677,
      "encounter": 8678,
      "last_n": 8679,
      "relative_": 8680,
      "integr": 8681,
      "callable_": 8682,
      "Y_pred": 8683,
      "DOK": 8684,
      "eigenvectors": 8685,
      "multiclass_": 8686,
      "------------------------------------------------": 8687,
      "commons": 8688,
      "_error_": 8689,
      "ILON": 8690,
      "Serial": 8691,
      "digit": 8692,
      "Credentials": 8693,
      "subplots_adjust": 8694,
      "query_id": 8695,
      "_multiple": 8696,
      "cg_score": 8697,
      "everything": 8698,
      "labeled_": 8699,
      "func_name": 8700,
      "_NAM": 8701,
      "Handle": 8702,
      "list_validation_alias": 8703,
      "PredictionErrorDisplay": 8704,
      "paper": 8705,
      "NAME": 8706,
      "edThresholdClassifierCV": 8707,
      "preading": 8708,
      "declar": 8709,
      "Validate": 8710,
      "is_scalar_nan": 8711,
      "v_measure_score": 8712,
      "_CLASSIFI": 8713,
      "reserved": 8714,
      "violation": 8715,
      "clusive": 8716,
      "Actual": 8717,
      "Pattern": 8718,
      "EPSILON": 8719,
      ")/": 8720,
      "6_1": 8721,
      "Mak": 8722,
      "Sk": 8723,
      "]``": 8724,
      "_mode": 8725,
      "_6_1": 8726,
      "iver": 8727,
      "ibl": 8728,
      "llo": 8729,
      "me_": 8730,
      "tps": 8731,
      "ven": 8732,
      "ater": 8733,
      "orange": 8734,
      "alink": 8735,
      "almost": 8736,
      "recent": 8737,
      "anity": 8738,
      "deca": 8739,
      "sted": 8740,
      "test2": 8741,
      "cos": 8742,
      "icfg": 8743,
      "X_plot": 8744,
      "item_name": 8745,
      "ssl": 8746,
      "area": 8747,
      "Testing": 8748,
      "check_cv": 8749,
      "subsampling": 8750,
      "uggy": 8751,
      "is_fitted_": 8752,
      "_seed": 8753,
      "lobpcg": 8754,
      "dirs": 8755,
      "expected_failed_checks": 8756,
      "html_repr": 8757,
      "no_validation": 8758,
      "dotenv": 8759,
      "_lasso": 8760,
      "ashes": 8761,
      "_next": 8762,
      "OutMixin": 8763,
      "Setup": 8764,
      "Identity": 8765,
      "syntax": 8766,
      "ING_": 8767,
      "lasso_path": 8768,
      "factorization": 8769,
      "balance": 8770,
      "projected": 8771,
      "similarities": 8772,
      "permalink": 8773,
      "Splitter": 8774,
      "consumer": 8775,
      "extracted": 8776,
      "respective": 8777,
      "execute": 8778,
      "KNeighborsTransformer": 8779,
      "exc_type": 8780,
      "StackingClassifier": 8781,
      "eq__": 8782,
      "FeaturesOutMixin": 8783,
      "Estimate": 8784,
      "sufficient": 8785,
      "independently": 8786,
      "Hashing": 8787,
      "Failure": 8788,
      "Squared": 8789,
      "explained_variance_ratio": 8790,
      "papers": 8791,
      "_openmp_": 8792,
      "ALID_METRICS": 8793,
      "FOREST_": 8794,
      "TunedThresholdClassifierCV": 8795,
      "PrefixFeaturesOutMixin": 8796,
      "low_priority_": 8797,
      "ClassNamePrefixFeaturesOutMixin": 8798,
      "-\",": 8799,
      ".]])": 8800,
      "Glob": 8801,
      "High": 8802,
      "Op": 8803,
      "QR": 8804,
      "Spreading": 8805,
      "VAR": 8806,
      "Xw": 8807,
      "_IN": 8808,
      "_left": 8809,
      "_iter_": 8810,
      "_divergence": 8811,
      "ux": 8812,
      "xgb": 8813,
      "inp": 8814,
      "invariant": 8815,
      "ale": 8816,
      "retry": 8817,
      "leave": 8818,
      "\",\"": 8819,
      "toterminal": 8820,
      "conv": 8821,
      "wide": 8822,
      "test_collect": 8823,
      "str__": 8824,
      "heel": 8825,
      "idf": 8826,
      "__eq__": 8827,
      "__str__": 8828,
      "``\"": 8829,
      "Theil": 8830,
      "bypass": 8831,
      "\"]}": 8832,
      "sgd_": 8833,
      "has_missing_values": 8834,
      "ught": 8835,
      "content_type": 8836,
      "haver": 8837,
      "_bre": 8838,
      "order_": 8839,
      "es_h": 8840,
      "negate": 8841,
      "_scaled_": 8842,
      "raw_predict": 8843,
      "searchsorted": 8844,
      "distance_threshold": 8845,
      "included_": 8846,
      "item_id__get": 8847,
      "_large": 8848,
      "decision_function_shape": 8849,
      "ICATION": 8850,
      "criteria": 8851,
      "strict_": 8852,
      "Monitor": 8853,
      "mixing": 8854,
      "figure_": 8855,
      "tutorial002_": 8856,
      "adjusted": 8857,
      "Minimal": 8858,
      "KNeighborsRegressor": 8859,
      "tuned_": 8860,
      "introspect": 8861,
      "metadata_request": 8862,
      "feat_idx": 8863,
      "authentication": 8864,
      "named_steps": 8865,
      "cachedir": 8866,
      "radius_neighbors_graph": 8867,
      "pinball": 8868,
      "ICAgICAgICAgICAgICAgICAgICAgICAgICAgICAgICAgICAgICAgICAgICAgICAg": 8869,
      "prompt": 8870,
      "_instance_": 8871,
      "_super": 8872,
      "ABCMeta": 8873,
      "grant": 8874,
      "learning_rate_init": 8875,
      "changed_only": 8876,
      "Klass": 8877,
      "media_type": 8878,
      "(\\": 8879,
      "/)": 8880,
      "Average": 8881,
      "Gmax_": 8882,
      "JAX": 8883,
      "OUS": 8884,
      "THE": 8885,
      "[{": 8886,
      "_option": 8887,
      "_setup": 8888,
      "ace": 8889,
      "cd_": 8890,
      "gray": 8891,
      "ks": 8892,
      "sible": 8893,
      "tell": 8894,
      "year": 8895,
      "inds": 8896,
      "ond": 8897,
      "is_multiclass": 8898,
      "test_skip": 8899,
      "inger": 8900,
      "urlo": 8901,
      "apis": 8902,
      "prev": 8903,
      "live": 8904,
      "y_np": 8905,
      "with_std": 8906,
      "pay": 8907,
      "csgraph": 8908,
      "list_str": 8909,
      "fixt": 8910,
      "raise_": 8911,
      "low_rank": 8912,
      "cv1": 8913,
      "kwargs_": 8914,
      "printed": 8915,
      "node_samples": 8916,
      "creen": 8917,
      "generating": 8918,
      "unders": 8919,
      "_recor": 8920,
      "expected_n_": 8921,
      "Warnings": 8922,
      "capfd": 8923,
      "[[],": 8924,
      "HTTPBasic": 8925,
      "confcut": 8926,
      "parent_": 8927,
      "Allow": 8928,
      "REP": 8929,
      "finds": 8930,
      "sense": 8931,
      "displayed": 8932,
      "lru_": 8933,
      "switch": 8934,
      "assumption": 8935,
      "purpose": 8936,
      "pkl": 8937,
      "Sequential": 8938,
      "doc_lines": 8939,
      "separate_": 8940,
      "params_str_": 8941,
      "SelectF": 8942,
      "mixin": 8943,
      "__getitem__": 8944,
      "CaptureFixture": 8945,
      "sum_gradients": 8946,
      "_skipped": 8947,
      "legend_metric": 8948,
      "Abs": 8949,
      "iddleware": 8950,
      "Specify": 8951,
      "MLPRegressor": 8952,
      "authenticated": 8953,
      "neg_log_loss": 8954,
      "precisions_chol": 8955,
      "exec_info": 8956,
      "isecting": 8957,
      "_enforce_estimator_tags_y": 8958,
      "homogeneity": 8959,
      "varying": 8960,
      "incr_": 8961,
      "WISE_": 8962,
      "read_items_items__get": 8963,
      "pinball_loss": 8964,
      "abilist": 8965,
      "thread_unsafe": 8966,
      "Digest": 8967,
      "encountered": 8968,
      "decay": 8969,
      "urlopen": 8970,
      "120": 8971,
      "2nd": 8972,
      "250": 8973,
      "Av": 8974,
      "Div": 8975,
      "Equ": 8976,
      "Frozen": 8977,
      "Junit": 8978,
      "MM": 8979,
      "Opt": 8980,
      "QD": 8981,
      "TRE": 8982,
      "Wi": 8983,
      "__s": 8984,
      "_mark": 8985,
      "_var": 8986,
      "_string": 8987,
      "_compare_": 8988,
      "a2": 8989,
      "hl": 8990,
      "mul": 8991,
      "nar": 8992,
      "y_scores": 8993,
      "reuse": 8994,
      "ulate": 8995,
      "tocsr": 8996,
      "expen": 8997,
      "s_are_": 8998,
      "ilities": 8999,
      "material": 9000,
      "X_csc": 9001,
      "trade": 9002,
      "usable": 9003,
      "result_xp": 9004,
      "checked_": 9005,
      "))]": 9006,
      "foun": 9007,
      "max_no_improvement": 9008,
      "usefixtures": 9009,
      "_torch": 9010,
      "instanti": 9011,
      "plotted": 9012,
      "host_": 9013,
      "reading": 9014,
      "_models": 9015,
      "...],": 9016,
      "CliRunner": 9017,
      "data_binary": 9018,
      "fails_": 9019,
      "species": 9020,
      "_CO": 9021,
      "Could": 9022,
      "partial_fit_": 9023,
      "preprocess_": 9024,
      "SPARS": 9025,
      "static_folder": 9026,
      "AMPL": 9027,
      "reduced": 9028,
      "templates": 9029,
      "conditioned": 9030,
      "binarizer": 9031,
      "dense_data": 9032,
      "rbf_kernel": 9033,
      "l2_regularization": 9034,
      "store_cv_results": 9035,
      "Supports": 9036,
      "residual_": 9037,
      "pectrum": 9038,
      "minibatch": 9039,
      "d2_log_loss": 9040,
[...]
